{
  "version": "1.0",
  "truncation": null,
  "padding": null,
  "added_tokens": [
    {
      "id": 0,
      "special": true,
      "content": "<s>",
      "single_word": false,
      "lstrip": false,
      "rstrip": false,
      "normalized": false
    }
  ],
  "normalizer": {
    "type": "Lowercase"
  },
  "pre_tokenizer": {
    "type": "ByteLevel",
    "add_prefix_space": false,
    "trim_offsets": true
  },
  "post_processor": {
    "type": "ByteLevel",
    "add_prefix_space": true,
    "trim_offsets": false
  },
  "decoder": {
    "type": "ByteLevel",
    "add_prefix_space": true,
    "trim_offsets": true
  },
  "model": {
    "type": "BPE",
    "dropout": null,
    "unk_token": null,
    "continuing_subword_prefix": null,
    "end_of_word_suffix": null,
    "vocab": {
      "<s>": 0,
      "!": 1,
      "\"": 2,
      "#": 3,
      "$": 4,
      "%": 5,
      "&": 6,
      "'": 7,
      "(": 8,
      ")": 9,
      "*": 10,
      "+": 11,
      ",": 12,
      "-": 13,
      ".": 14,
      "/": 15,
      "0": 16,
      "1": 17,
      "2": 18,
      "3": 19,
      "4": 20,
      "5": 21,
      "6": 22,
      "7": 23,
      "8": 24,
      "9": 25,
      ":": 26,
      ";": 27,
      "<": 28,
      "=": 29,
      ">": 30,
      "?": 31,
      "@": 32,
      "A": 33,
      "B": 34,
      "C": 35,
      "D": 36,
      "E": 37,
      "F": 38,
      "G": 39,
      "H": 40,
      "I": 41,
      "J": 42,
      "K": 43,
      "L": 44,
      "M": 45,
      "N": 46,
      "O": 47,
      "P": 48,
      "Q": 49,
      "R": 50,
      "S": 51,
      "T": 52,
      "U": 53,
      "V": 54,
      "W": 55,
      "X": 56,
      "Y": 57,
      "Z": 58,
      "[": 59,
      "\\": 60,
      "]": 61,
      "^": 62,
      "_": 63,
      "`": 64,
      "a": 65,
      "b": 66,
      "c": 67,
      "d": 68,
      "e": 69,
      "f": 70,
      "g": 71,
      "h": 72,
      "i": 73,
      "j": 74,
      "k": 75,
      "l": 76,
      "m": 77,
      "n": 78,
      "o": 79,
      "p": 80,
      "q": 81,
      "r": 82,
      "s": 83,
      "t": 84,
      "u": 85,
      "v": 86,
      "w": 87,
      "x": 88,
      "y": 89,
      "z": 90,
      "{": 91,
      "|": 92,
      "}": 93,
      "~": 94,
      "¡": 95,
      "¢": 96,
      "£": 97,
      "¤": 98,
      "¥": 99,
      "¦": 100,
      "§": 101,
      "¨": 102,
      "©": 103,
      "ª": 104,
      "«": 105,
      "¬": 106,
      "®": 107,
      "¯": 108,
      "°": 109,
      "±": 110,
      "²": 111,
      "³": 112,
      "´": 113,
      "µ": 114,
      "¶": 115,
      "·": 116,
      "¸": 117,
      "¹": 118,
      "º": 119,
      "»": 120,
      "¼": 121,
      "½": 122,
      "¾": 123,
      "¿": 124,
      "À": 125,
      "Á": 126,
      "Â": 127,
      "Ã": 128,
      "Ä": 129,
      "Å": 130,
      "Æ": 131,
      "Ç": 132,
      "È": 133,
      "É": 134,
      "Ê": 135,
      "Ë": 136,
      "Ì": 137,
      "Í": 138,
      "Î": 139,
      "Ï": 140,
      "Ð": 141,
      "Ñ": 142,
      "Ò": 143,
      "Ó": 144,
      "Ô": 145,
      "Õ": 146,
      "Ö": 147,
      "×": 148,
      "Ø": 149,
      "Ù": 150,
      "Ú": 151,
      "Û": 152,
      "Ü": 153,
      "Ý": 154,
      "Þ": 155,
      "ß": 156,
      "à": 157,
      "á": 158,
      "â": 159,
      "ã": 160,
      "ä": 161,
      "å": 162,
      "æ": 163,
      "ç": 164,
      "è": 165,
      "é": 166,
      "ê": 167,
      "ë": 168,
      "ì": 169,
      "í": 170,
      "î": 171,
      "ï": 172,
      "ð": 173,
      "ñ": 174,
      "ò": 175,
      "ó": 176,
      "ô": 177,
      "õ": 178,
      "ö": 179,
      "÷": 180,
      "ø": 181,
      "ù": 182,
      "ú": 183,
      "û": 184,
      "ü": 185,
      "ý": 186,
      "þ": 187,
      "ÿ": 188,
      "Ā": 189,
      "ā": 190,
      "Ă": 191,
      "ă": 192,
      "Ą": 193,
      "ą": 194,
      "Ć": 195,
      "ć": 196,
      "Ĉ": 197,
      "ĉ": 198,
      "Ċ": 199,
      "ċ": 200,
      "Č": 201,
      "č": 202,
      "Ď": 203,
      "ď": 204,
      "Đ": 205,
      "đ": 206,
      "Ē": 207,
      "ē": 208,
      "Ĕ": 209,
      "ĕ": 210,
      "Ė": 211,
      "ė": 212,
      "Ę": 213,
      "ę": 214,
      "Ě": 215,
      "ě": 216,
      "Ĝ": 217,
      "ĝ": 218,
      "Ğ": 219,
      "ğ": 220,
      "Ġ": 221,
      "ġ": 222,
      "Ģ": 223,
      "ģ": 224,
      "Ĥ": 225,
      "ĥ": 226,
      "Ħ": 227,
      "ħ": 228,
      "Ĩ": 229,
      "ĩ": 230,
      "Ī": 231,
      "ī": 232,
      "Ĭ": 233,
      "ĭ": 234,
      "Į": 235,
      "į": 236,
      "İ": 237,
      "ı": 238,
      "Ĳ": 239,
      "ĳ": 240,
      "Ĵ": 241,
      "ĵ": 242,
      "Ķ": 243,
      "ķ": 244,
      "ĸ": 245,
      "Ĺ": 246,
      "ĺ": 247,
      "Ļ": 248,
      "ļ": 249,
      "Ľ": 250,
      "ľ": 251,
      "Ŀ": 252,
      "ŀ": 253,
      "Ł": 254,
      "ł": 255,
      "Ń": 256,
      "Ġt": 257,
      "he": 258,
      "Ġa": 259,
      "Ġs": 260,
      "in": 261,
      "Ġthe": 262,
      "Ġw": 263,
      "âĢ": 264,
      "ou": 265,
      "re": 266,
      "Ġi": 267,
      "Ġb": 268,
      "Ġm": 269,
      "nd": 270,
      "er": 271,
      "on": 272,
      "Ġh": 273,
      "Ġd": 274,
      "Ġc": 275,
      "Ġf": 276,
      "at": 277,
      "an": 278,
      "âĢĮ": 279,
      "ed": 280,
      "Ġto": 281,
      "ing": 282,
      "Ġg": 283,
      "or": 284,
      "Ġp": 285,
      "ll": 286,
      "es": 287,
      "Ġand": 288,
      "is": 289,
      "Ġy": 290,
      "Ġo": 291,
      "Ġhe": 292,
      "Ġl": 293,
      "ar": 294,
      "it": 295,
      "en": 296,
      "Ġth": 297,
      "Ġyou": 298,
      "as": 299,
      "Ġn": 300,
      "Ġin": 301,
      "om": 302,
      "ay": 303,
      "âĢĮâĢĮ": 304,
      "ow": 305,
      "Ġof": 306,
      "ve": 307,
      "Ġ\"": 308,
      "le": 309,
      "id": 310,
      "ot": 311,
      "us": 312,
      "Ġbe": 313,
      "ic": 314,
      "Ġe": 315,
      "Ġon": 316,
      "ld": 317,
      "Ġre": 318,
      "Ġit": 319,
      "et": 320,
      "..": 321,
      "Ġha": 322,
      "ir": 323,
      "al": 324,
      "Ġis": 325,
      "the": 326,
      "ver": 327,
      "ac": 328,
      "im": 329,
      "Ġfor": 330,
      "ut": 331,
      "Ġst": 332,
      "gh": 333,
      "Ġdo": 334,
      "Ġj": 335,
      "ri": 336,
      "ke": 337,
      "Ġu": 338,
      "ad": 339,
      "Ġas": 340,
      "Ġwh": 341,
      "st": 342,
      "ly": 343,
      "Ġwas": 344,
      "Ġhis": 345,
      "out": 346,
      "Ġthat": 347,
      "Ġmy": 348,
      "Ġan": 349,
      "ro": 350,
      "ent": 351,
      "ĠĊ": 352,
      "'s": 353,
      "oo": 354,
      ".\"": 355,
      "âĢĻ": 356,
      "all": 357,
      "Ġme": 358,
      "ith": 359,
      "am": 360,
      "Ġwe": 361,
      "ays": 362,
      "Ġk": 363,
      "Ġwith": 364,
      "âĢĿ": 365,
      "ter": 366,
      "Ġse": 367,
      "âĢľ": 368,
      "ks": 369,
      "Ġman": 370,
      "se": 371,
      "Ġgo": 372,
      "ght": 373,
      "Ġsa": 374,
      "ch": 375,
      "th": 376,
      "Ġshe": 377,
      "ur": 378,
      "Ġat": 379,
      "if": 380,
      "Ġso": 381,
      "ion": 382,
      "Ġsh": 383,
      "Ġup": 384,
      "Ġher": 385,
      "Ġne": 386,
      "Ġsays": 387,
      "her": 388,
      "'t": 389,
      "Ġr": 390,
      "ĠâĢľ": 391,
      "ould": 392,
      "and": 393,
      "Ġbut": 394,
      "Ġthis": 395,
      "wh": 396,
      "ill": 397,
      "ked": 398,
      "ust": 399,
      "Ġhim": 400,
      "Ġhave": 401,
      "Ġthey": 402,
      "op": 403,
      "ome": 404,
      "Ġout": 405,
      "li": 406,
      "?\"": 407,
      "ell": 408,
      "Ġget": 409,
      "...": 410,
      "Ġare": 411,
      "ant": 412,
      "un": 413,
      "ain": 414,
      "Ġch": 415,
      "one": 416,
      "Ġwhe": 417,
      "Ġli": 418,
      "Ġyour": 419,
      "king": 420,
      "Ġde": 421,
      "Ġsaid": 422,
      "pp": 423,
      "art": 424,
      "ge": 425,
      "Ġcan": 426,
      "ce": 427,
      "ack": 428,
      "il": 429,
      "est": 430,
      "Ġnot": 431,
      "ct": 432,
      "end": 433,
      "Ġone": 434,
      "Ġsu": 435,
      "ore": 436,
      "Ġall": 437,
      "Ġfr": 438,
      "Ġkn": 439,
      "very": 440,
      "ind": 441,
      "um": 442,
      "Ġwhat": 443,
      "ally": 444,
      "red": 445,
      "Ġma": 446,
      "Ġgu": 447,
      "ck": 448,
      "Ġjo": 449,
      "what": 450,
      "ab": 451,
      "to": 452,
      "ife": 453,
      "Ġab": 454,
      "ers": 455,
      "Ġle": 456,
      "Ġjust": 457,
      "ard": 458,
      "!\"": 459,
      "Ġwhen": 460,
      "qu": 461,
      "Ġdid": 462,
      "Ġtr": 463,
      "Ġwor": 464,
      "Ġbo": 465,
      ".âĢĿ": 466,
      "ate": 467,
      "our": 468,
      "Ġrep": 469,
      "ian": 470,
      "ist": 471,
      "use": 472,
      "Ġthere": 473,
      "Ġpo": 474,
      "Ġco": 475,
      "Ġag": 476,
      "Ġcom": 477,
      "ess": 478,
      "ound": 479,
      "Ġal": 480,
      "ame": 481,
      "Ġdon": 482,
      "ast": 483,
      "Ġoff": 484,
      "Ġta": 485,
      "Ġinto": 486,
      "ss": 487,
      "ĠĠĊ": 488,
      "Ġhad": 489,
      "irl": 490,
      "ig": 491,
      "Ġlo": 492,
      "Ġknow": 493,
      "Ġfrom": 494,
      "ood": 495,
      "Ġthem": 496,
      "Ġwould": 497,
      "Ġabout": 498,
      "ear": 499,
      "ca": 500,
      "own": 501,
      "Ġif": 502,
      "00": 503,
      "Ġcon": 504,
      "Ġno": 505,
      "Ġsp": 506,
      "Ġex": 507,
      "ight": 508,
      "Ġback": 509,
      "Ġthen": 510,
      "my": 511,
      "man": 512,
      "fter": 513,
      "Ġlike": 514,
      "ice": 515,
      "ime": 516,
      "ish": 517,
      "Ġguy": 518,
      "ra": 519,
      "ick": 520,
      "Ġwho": 521,
      "ine": 522,
      "ul": 523,
      "'m": 524,
      "Ġday": 525,
      "Ġpl": 526,
      "Ġfe": 527,
      "Ġloo": 528,
      "Ġwal": 529,
      "Ġhow": 530,
      "Ġcl": 531,
      "Ġwife": 532,
      "Ġasked": 533,
      "ide": 534,
      "Ġar": 535,
      "ive": 536,
      "Ġro": 537,
      "Ġrepli": 538,
      "Ġor": 539,
      "ry": 540,
      "nt": 541,
      "Ġv": 542,
      "Ġwant": 543,
      "ass": 544,
      "Ġgot": 545,
      "ep": 546,
      "ather": 547,
      "Ġgirl": 548,
      "Ġevery": 549,
      "riend": 550,
      "are": 551,
      "ong": 552,
      "Ġqu": 553,
      "Ġdown": 554,
      "itt": 555,
      "cause": 556,
      "Ġtw": 557,
      "Ġpro": 558,
      "Ġwill": 559,
      "Ġsee": 560,
      "Ġby": 561,
      "Ġold": 562,
      "ag": 563,
      "ond": 564,
      "Ġgr": 565,
      "ie": 566,
      "Ġam": 567,
      "Ġsome": 568,
      "other": 569,
      "Ġasks": 570,
      "so": 571,
      "urn": 572,
      "Ġtheir": 573,
      "ation": 574,
      "Ġany": 575,
      "Ġcall": 576,
      "Ġover": 577,
      "Ġtime": 578,
      "irst": 579,
      "Ġbl": 580,
      "pt": 581,
      "Ġthin": 582,
      "Ġ1": 583,
      "Ġthan": 584,
      "Ġwom": 585,
      "ĠĠ": 586,
      "ort": 587,
      ",\"": 588,
      "Ġbar": 589,
      "Ġfirst": 590,
      "'ll": 591,
      "lf": 592,
      "Ġen": 593,
      "Ġtell": 594,
      "ving": 595,
      "we": 596,
      "Ġafter": 597,
      "Ġbr": 598,
      "Ġagain": 599,
      "Ġsay": 600,
      "ous": 601,
      "ree": 602,
      "ough": 603,
      "Ġwere": 604,
      "Ġpre": 605,
      "Ġbecause": 606,
      "ud": 607,
      "uck": 608,
      "Ġhas": 609,
      "Ġcould": 610,
      "Ġpe": 611,
      "ile": 612,
      "Ġnow": 613,
      "hing": 614,
      "kes": 615,
      "ave": 616,
      "ther": 617,
      "Ġstart": 618,
      "Ġdr": 619,
      "ure": 620,
      "Ġyear": 621,
      "Ġtwo": 622,
      "xt": 623,
      "Ġpr": 624,
      "Ġtoo": 625,
      "?âĢĿ": 626,
      "Ġgoing": 627,
      "el": 628,
      "ven": 629,
      "hes": 630,
      "ople": 631,
      "right": 632,
      "Ġ$": 633,
      "Ġwoman": 634,
      "ves": 635,
      "Ġmo": 636,
      "ite": 637,
      "ol": 638,
      "Ġsm": 639,
      "ater": 640,
      "edit": 641,
      "Ġnew": 642,
      "no": 643,
      "me": 644,
      "Ġson": 645,
      "ber": 646,
      "**": 647,
      "Ġwa": 648,
      "Ġpeople": 649,
      "you": 650,
      "au": 651,
      "ble": 652,
      "well": 653,
      "Ġwent": 654,
      "Ġdoor": 655,
      "fe": 656,
      "ach": 657,
      "ittle": 658,
      "how": 659,
      "Ġte": 660,
      "day": 661,
      "orn": 662,
      "Ġnext": 663,
      "Ġlet": 664,
      "Ġun": 665,
      "per": 666,
      "ple": 667,
      "Ġsex": 668,
      "sp": 669,
      "Ġdad": 670,
      "Ġother": 671,
      "ull": 672,
      "hed": 673,
      "Ġcar": 674,
      "'re": 675,
      "Ġlittle": 676,
      "Ġboy": 677,
      "ire": 678,
      "ps": 679,
      "Ġus": 680,
      "ath": 681,
      "ity": 682,
      "ase": 683,
      "Ġhand": 684,
      "Ġ2": 685,
      "Ġsc": 686,
      "Ġfather": 687,
      "Ġgood": 688,
      "Ġmu": 689,
      "Ġhere": 690,
      "'ve": 691,
      "dd": 692,
      "uc": 693,
      "ought": 694,
      "fore": 695,
      "Ġfriend": 696,
      "Ġdoes": 697,
      "Ġtake": 698,
      "band": 699,
      "ild": 700,
      "usband": 701,
      "age": 702,
      "be": 703,
      "ment": 704,
      "ress": 705,
      "Ġtold": 706,
      "Ġonly": 707,
      "ace": 708,
      "ctor": 709,
      "Ġnever": 710,
      "why": 711,
      "Ġbeen": 712,
      "bo": 713,
      "Ġdec": 714,
      "act": 715,
      "oney": 716,
      "Ġmuch": 717,
      "thing": 718,
      "ender": 719,
      "ens": 720,
      "Ġgoes": 721,
      "that": 722,
      "ouse": 723,
      "arm": 724,
      "ea": 725,
      "pe": 726,
      "Ġmore": 727,
      "Ġhome": 728,
      "dy": 729,
      "Ġfin": 730,
      "ang": 731,
      "Ġgre": 732,
      "Ġsec": 733,
      "Ġjoke": 734,
      "Ġcou": 735,
      "Ġthink": 736,
      "pl": 737,
      "nder": 738,
      "Ġhusband": 739,
      "Ġgets": 740,
      "air": 741,
      "Ġmom": 742,
      "self": 743,
      "Ġreplies": 744,
      "wn": 745,
      "Ġway": 746,
      "ft": 747,
      "Ġright": 748,
      "Ġdri": 749,
      "Ġnight": 750,
      "Ġbefore": 751,
      "Ġthing": 752,
      "Ġmake": 753,
      "Ġreplied": 754,
      "oh": 755,
      "Ġapp": 756,
      "Ġdis": 757,
      "Ġwhere": 758,
      "Ġvery": 759,
      "Ġbet": 760,
      "Ġke": 761,
      "Ġim": 762,
      "Ġreally": 763,
      "iz": 764,
      "ting": 765,
      "Ġ'": 766,
      "Ġho": 767,
      "Ġthr": 768,
      "ool": 769,
      "Ġturn": 770,
      "ren": 771,
      "Ġbu": 772,
      "Ġfl": 773,
      "Ġfind": 774,
      "Ġput": 775,
      "Ġdidn": 776,
      "ff": 777,
      "yes": 778,
      "Ġca": 779,
      "Ġfo": 780,
      "Ġhapp": 781,
      "Ġroom": 782,
      "te": 783,
      "Ġmon": 784,
      "Ġunder": 785,
      "Ġwhy": 786,
      "ump": 787,
      "Ġhead": 788,
      "augh": 789,
      "Ġhouse": 790,
      "Ġdog": 791,
      "ip": 792,
      "artender": 793,
      "av": 794,
      "ies": 795,
      "Ġ3": 796,
      "Ġmin": 797,
      "ady": 798,
      "Ġfew": 799,
      "ved": 800,
      "Ġmad": 801,
      "aw": 802,
      "ny": 803,
      "Ġsame": 804,
      "Ġshow": 805,
      "cc": 806,
      "os": 807,
      "Ġbed": 808,
      "she": 809,
      "Ġdoctor": 810,
      "riest": 811,
      "Ġwhile": 812,
      "Ġwork": 813,
      "Ġdrin": 814,
      "Ġsl": 815,
      "Ġmar": 816,
      "Ġpass": 817,
      "ich": 818,
      "do": 819,
      "ew": 820,
      "Ġbartender": 821,
      "Ġwell": 822,
      "side": 823,
      "whe": 824,
      "Ġbre": 825,
      "Ġmoney": 826,
      "Ġwalks": 827,
      "Ġwait": 828,
      "sh": 829,
      "Ġatt": 830,
      "Ġshould": 831,
      "les": 832,
      "ways": 833,
      "Ġ-": 834,
      "friend": 835,
      "ose": 836,
      "ue": 837,
      "Ġsur": 838,
      "!âĢĿ": 839,
      "gg": 840,
      "Ġad": 841,
      "Ġche": 842,
      "Ġop": 843,
      "Ġeven": 844,
      "Ġ5": 845,
      "Ġcome": 846,
      "atch": 847,
      "ence": 848,
      "oth": 849,
      "utes": 850,
      "ty": 851,
      "Ġaw": 852,
      "Ġthought": 853,
      "ope": 854,
      "Ġlater": 855,
      "ma": 856,
      "ng": 857,
      "Ġcr": 858,
      "Ġalways": 859,
      "igh": 860,
      "Ġsw": 861,
      "ans": 862,
      "Ġgl": 863,
      "ars": 864,
      "Ġgod": 865,
      "Ġneed": 866,
      "Ġyears": 867,
      "Ġsecond": 868,
      "get": 869,
      "able": 870,
      "Ġaround": 871,
      "Ġwr": 872,
      "Ġbus": 873,
      "omet": 874,
      "Ġchild": 875,
      "abb": 876,
      "Ġbig": 877,
      "Ġfuc": 878,
      "ated": 879,
      "Ġpar": 880,
      "Ġlast": 881,
      "Ġwee": 882,
      "Ġthrough": 883,
      "Ġtal": 884,
      "ird": 885,
      "Ġstill": 886,
      "ried": 887,
      "Ġmany": 888,
      "\".": 889,
      "Ġple": 890,
      "llow": 891,
      "Ġyoung": 892,
      "Ġdecid": 893,
      "Ġmade": 894,
      "Ġsure": 895,
      "med": 896,
      "ub": 897,
      "Ġper": 898,
      "Ġsaw": 899,
      "Ġjob": 900,
      "Ġpol": 901,
      "Âł": 902,
      "Ġdi": 903,
      "Ġgive": 904,
      "ory": 905,
      "iss": 906,
      "aring": 907,
      "its": 908,
      "âĢĮâĢĮ,": 909,
      "Ġstr": 910,
      "this": 911,
      "Ġmother": 912,
      "ank": 913,
      "Ġans": 914,
      "Ġjoh": 915,
      "Ġminutes": 916,
      "na": 917,
      "up": 918,
      "ange": 919,
      "ise": 920,
      "Ġgold": 921,
      "Ġeng": 922,
      "but": 923,
      "Ġbest": 924,
      "Ġdes": 925,
      "Ġcame": 926,
      "Ġown": 927,
      "Ġlife": 928,
      "Ġever": 929,
      "Ġjohn": 930,
      ",âĢĿ": 931,
      "ord": 932,
      "Ġhaving": 933,
      "ook": 934,
      "lp": 935,
      "oc": 936,
      "Ġret": 937,
      "Ġlove": 938,
      "Ġlooks": 939,
      "ĠĠĠĠ": 940,
      "Ġtook": 941,
      "Ġgreat": 942,
      "ious": 943,
      "Ġsomet": 944,
      "int": 945,
      "....": 946,
      "Ġ(": 947,
      "Ġbit": 948,
      "Ġear": 949,
      "they": 950,
      "jo": 951,
      "ost": 952,
      "Ġour": 953,
      "Ġfound": 954,
      "ane": 955,
      "ary": 956,
      "Ġbeing": 957,
      "Ġend": 958,
      "Ġeach": 959,
      "ak": 960,
      "ok": 961,
      "Ġ6": 962,
      "Ġstop": 963,
      "Ġsupp": 964,
      "Ġfollow": 965,
      "az": 966,
      "not": 967,
      "Ġ9": 968,
      "orry": 969,
      "Ġpriest": 970,
      "Ġhelp": 971,
      "Ġthree": 972,
      "000": 973,
      "Ġanything": 974,
      "Ġthanks": 975,
      "'d": 976,
      "ne": 977,
      "Ġpart": 978,
      "ese": 979,
      "ened": 980,
      "vers": 981,
      "ards": 982,
      "ually": 983,
      "Ġser": 984,
      "Ġgi": 985,
      "Ġpull": 986,
      "Ġcont": 987,
      "Ġgirlfriend": 988,
      "orning": 989,
      "ont": 990,
      "Ġrec": 991,
      "Ġstand": 992,
      "Ġkid": 993,
      "Ġsees": 994,
      "aughter": 995,
      "ial": 996,
      "Ġboth": 997,
      "eric": 998,
      "ating": 999,
      "Ġgen": 1000,
      "Ġpic": 1001,
      "Ġread": 1002,
      "Ġresp": 1003,
      "Ġask": 1004,
      "amp": 1005,
      "Ġkeep": 1006,
      "cl": 1007,
      "gs": 1008,
      "mon": 1009,
      "ying": 1010,
      "Ġanother": 1011,
      "ately": 1012,
      "Ġcomp": 1013,
      "Ġexpl": 1014,
      "Ġord": 1015,
      "ock": 1016,
      "Ġmorning": 1017,
      "Ġfarm": 1018,
      "lle": 1019,
      "ident": 1020,
      "Ġdoing": 1021,
      "lie": 1022,
      "pped": 1023,
      "Ġlook": 1024,
      "Ġenough": 1025,
      "Ġstarted": 1026,
      "Ġdoesn": 1027,
      "Ġsomething": 1028,
      "ap": 1029,
      "after": 1030,
      "ned": 1031,
      "ru": 1032,
      "Ġ#": 1033,
      "Ġid": 1034,
      "Ġlong": 1035,
      "Ġname": 1036,
      "arent": 1037,
      "Ġent": 1038,
      "Ġdro": 1039,
      "Ġonce": 1040,
      "acher": 1041,
      "erson": 1042,
      "Ġpost": 1043,
      "Ġeveryone": 1044,
      "Ġplease": 1045,
      "aut": 1046,
      "ily": 1047,
      "Ġ:": 1048,
      "Ġmay": 1049,
      "Ġmust": 1050,
      "ates": 1051,
      "ister": 1052,
      "Ġthose": 1053,
      "Ġrun": 1054,
      "Ġnothing": 1055,
      "Ġtakes": 1056,
      "Ġtells": 1057,
      "mber": 1058,
      "ream": 1059,
      "Ġhard": 1060,
      "Ġel": 1061,
      "ste": 1062,
      "Ġleft": 1063,
      "Ġcomes": 1064,
      "Ġthank": 1065,
      "Ġreturn": 1066,
      "!!": 1067,
      "led": 1068,
      "Ġve": 1069,
      "Ġsat": 1070,
      "âĢĺ": 1071,
      "room": 1072,
      "Ġkill": 1073,
      "Ġshout": 1074,
      "Ġtrump": 1075,
      "Ġameric": 1076,
      "Ġmoment": 1077,
      "yer": 1078,
      "Ġsorry": 1079,
      "Ġhot": 1080,
      "Ġdays": 1081,
      "Ġyes": 1082,
      "ited": 1083,
      "ots": 1084,
      "Ġgetting": 1085,
      "Ġstarts": 1086,
      "Ġfinally": 1087,
      "Ġansw": 1088,
      "for": 1089,
      "ger": 1090,
      "ins": 1091,
      "Ġbad": 1092,
      "Ġhu": 1093,
      "Ġdif": 1094,
      "Ġcle": 1095,
      "uss": 1096,
      "Ġbec": 1097,
      "Ġrem": 1098,
      "Ġkind": 1099,
      "Ġcalled": 1100,
      "Ġcouple": 1101,
      "Ġdrink": 1102,
      "Ġweek": 1103,
      "bs": 1104,
      "ix": 1105,
      "less": 1106,
      "og": 1107,
      "Ġsk": 1108,
      "Ġpen": 1109,
      "Ġperson": 1110,
      "Ġbeaut": 1111,
      "Ġem": 1112,
      "Ġreal": 1113,
      "Ġass": 1114,
      "unch": 1115,
      "Ġword": 1116,
      "Ġguys": 1117,
      "Ġsomeone": 1118,
      "Ġpolice": 1119,
      "Ġacc": 1120,
      "Ġhour": 1121,
      "Ġph": 1122,
      "ute": 1123,
      "Ġrabb": 1124,
      "Ġlight": 1125,
      "itting": 1126,
      "Ġpret": 1127,
      "Ġletter": 1128,
      "ressed": 1129,
      "ia": 1130,
      "Ġ7": 1131,
      "Ġbir": 1132,
      "Ġlady": 1133,
      "Ġbeh": 1134,
      "Ġfront": 1135,
      "Ġwalk": 1136,
      "Ġthinks": 1137,
      "when": 1138,
      "ced": 1139,
      "dad": 1140,
      "ning": 1141,
      "ove": 1142,
      "hey": 1143,
      "Ġwon": 1144,
      "Ġwind": 1145,
      "Ġmat": 1146,
      "Ġhor": 1147,
      "Ġdaughter": 1148,
      "Ġline": 1149,
      "Ġlaw": 1150,
      "Ġdev": 1151,
      "Ġconf": 1152,
      "Ġlooked": 1153,
      "blem": 1154,
      "ddit": 1155,
      "Ġwrong": 1156,
      "Ġbeautif": 1157,
      "Ġbirth": 1158,
      "br": 1159,
      "een": 1160,
      "girl": 1161,
      "ts": 1162,
      "Ġuse": 1163,
      "Ġact": 1164,
      "Ġsch": 1165,
      "ons": 1166,
      "Ġfun": 1167,
      "Ġfav": 1168,
      "Ġheard": 1169,
      "Ġrest": 1170,
      "Ġreddit": 1171,
      "Ġwhich": 1172,
      "estion": 1173,
      "Ġnotic": 1174,
      "ign": 1175,
      "ishman": 1176,
      "Ġplay": 1177,
      "Ġwanted": 1178,
      "Ġquestion": 1179,
      "Ġfriends": 1180,
      "Ġmonth": 1181,
      "Ġdecided": 1182,
      "Ġexplain": 1183,
      "Ġbeautiful": 1184,
      "Ġair": 1185,
      "Ġir": 1186,
      "Ġmen": 1187,
      "Ġfell": 1188,
      "Ġtoday": 1189,
      "Ġok": 1190,
      "âĢĮâĢĮâĢĮâĢĮ": 1191,
      "Ġits": 1192,
      "Ġmax": 1193,
      "Ġalso": 1194,
      "ween": 1195,
      "Ġbetween": 1196,
      "ered": 1197,
      "vent": 1198,
      "ys": 1199,
      "ĠâĢĮâĢĮ": 1200,
      "ĠâĢĺ": 1201,
      "âĢ¦": 1202,
      "Ġcour": 1203,
      "used": 1204,
      "Ġjew": 1205,
      "umber": 1206,
      "Ġworld": 1207,
      "Ġlost": 1208,
      "Ġfeel": 1209,
      "Ġlooking": 1210,
      "Ġproblem": 1211,
      "Ġgrand": 1212,
      "Ġbrother": 1213,
      "Ġmost": 1214,
      "airs": 1215,
      "Ġdiffe": 1216,
      "ph": 1217,
      "Ġ4": 1218,
      "Ġter": 1219,
      "Ġhigh": 1220,
      "Ġreme": 1221,
      "Ġunt": 1222,
      "Ġhimself": 1223,
      "Ġcolle": 1224,
      "Ġsmall": 1225,
      "Ġdriver": 1226,
      "Ġthings": 1227,
      "Ġbetter": 1228,
      "Ġfucking": 1229,
      "Ġrespond": 1230,
      "ze": 1231,
      "Ġtable": 1232,
      "Ġwin": 1233,
      "ati": 1234,
      "Ġpay": 1235,
      "Ġhell": 1236,
      "Ġna": 1237,
      "then": 1238,
      "there": 1239,
      "Ġwalked": 1240,
      "Ġclass": 1241,
      "Ġbehind": 1242,
      "Ġwindow": 1243,
      "Ġuntil": 1244,
      "ever": 1245,
      "ier": 1246,
      "pr": 1247,
      "tw": 1248,
      "ĠĠĠĊ": 1249,
      "Ġac": 1250,
      "Ġsister": 1251,
      "Ġsitting": 1252,
      "ats": 1253,
      "atic": 1254,
      "ors": 1255,
      "Ġhear": 1256,
      "Ġwhis": 1257,
      "ants": 1258,
      "ction": 1259,
      "Ġwalking": 1260,
      "Ġ20": 1261,
      "Ġschool": 1262,
      ".'": 1263,
      "father": 1264,
      "oice": 1265,
      "ten": 1266,
      "Ġsir": 1267,
      "Ġthese": 1268,
      "Ġwatch": 1269,
      "Ġind": 1270,
      "Ġinter": 1271,
      "icer": 1272,
      "ross": 1273,
      "Ġmeet": 1274,
      "Ġplace": 1275,
      "Ġblow": 1276,
      "Ġbring": 1277,
      "Ġpres": 1278,
      "Ġcapt": 1279,
      "Ġtalking": 1280,
      "Ġjohnny": 1281,
      "ches": 1282,
      "iv": 1283,
      "oke": 1284,
      "Ġset": 1285,
      "ised": 1286,
      "Ġthird": 1287,
      "Ġwithout": 1288,
      "Ġcomm": 1289,
      "Ġeverything": 1290,
      "Ġteacher": 1291,
      "Ġaway": 1292,
      "Ġpretty": 1293,
      "Ġbirthday": 1294,
      "\",": 1295,
      "ald": 1296,
      "gn": 1297,
      "gu": 1298,
      "ib": 1299,
      "Ġage": 1300,
      "Ġwish": 1301,
      "Ġwater": 1302,
      "ret": 1303,
      "rew": 1304,
      "Ġbill": 1305,
      "als": 1306,
      "imes": 1307,
      "Ġseen": 1308,
      "Ġsoon": 1309,
      "Ġboss": 1310,
      "Ġcount": 1311,
      "Ġhappened": 1312,
      "Ġunderst": 1313,
      "Ġengl": 1314,
      "Ġfarmer": 1315,
      "Ġrabbi": 1316,
      "gic": 1317,
      "ied": 1318,
      "rist": 1319,
      "Ġbro": 1320,
      "Ġcare": 1321,
      "Ġfuck": 1322,
      "ance": 1323,
      "Ġpa": 1324,
      "Ġlaugh": 1325,
      "Ġbeer": 1326,
      "eter": 1327,
      "Ġago": 1328,
      "Ġquick": 1329,
      "Ġopens": 1330,
      "Ġremember": 1331,
      "by": 1332,
      "ms": 1333,
      "row": 1334,
      "son": 1335,
      "Ġfam": 1336,
      "Ġface": 1337,
      "Ġgave": 1338,
      "Ġparent": 1339,
      "leep": 1340,
      "Ġdoll": 1341,
      "key": 1342,
      "Ġking": 1343,
      "ult": 1344,
      "Ġcouldn": 1345,
      "Ġused": 1346,
      "Ġsupport": 1347,
      "aim": 1348,
      "ffe": 1349,
      "ired": 1350,
      "Ġsal": 1351,
      "Ġsil": 1352,
      "Ġcor": 1353,
      "ote": 1354,
      "Ġsub": 1355,
      "Ġsuch": 1356,
      "Ġleave": 1357,
      "Ġpoint": 1358,
      "Ġcoming": 1359,
      "Ġanyone": 1360,
      "Ġbuy": 1361,
      "Ġkids": 1362,
      "Ġcaptain": 1363,
      "Ġparents": 1364,
      "ible": 1365,
      "ye": 1366,
      "Ġtest": 1367,
      "hem": 1368,
      "Ġap": 1369,
      "Ġbab": 1370,
      "Ġce": 1371,
      "Ġfree": 1372,
      "Ġpop": 1373,
      "ash": 1374,
      "Ġinv": 1375,
      "Ġbelie": 1376,
      "Ġstory": 1377,
      "Ġoutside": 1378,
      "Ġlea": 1379,
      "Ġagre": 1380,
      "Ġvis": 1381,
      "Ġscream": 1382,
      "body": 1383,
      "pect": 1384,
      "ized": 1385,
      "Ġlawyer": 1386,
      "100": 1387,
      "ail": 1388,
      "ched": 1389,
      "mic": 1390,
      "od": 1391,
      "ton": 1392,
      "Ġ...": 1393,
      "Ġtri": 1394,
      "Ġtree": 1395,
      "Ġmet": 1396,
      "Ġmind": 1397,
      "Ġfull": 1398,
      "Ġtop": 1399,
      "Ġpope": 1400,
      "ark": 1401,
      "arge": 1402,
      "ital": 1403,
      "ition": 1404,
      "aster": 1405,
      "Ġeat": 1406,
      "...\"": 1407,
      "Ġmyself": 1408,
      "Ġspe": 1409,
      "Ġamaz": 1410,
      "Ġwomen": 1411,
      "Ġsaying": 1412,
      "Ġhands": 1413,
      "where": 1414,
      "Ġanswer": 1415,
      "two": 1416,
      "50": 1417,
      "ted": 1418,
      "ual": 1419,
      "way": 1420,
      "čĊ": 1421,
      "Ġ*": 1422,
      "Ġ8": 1423,
      "Ġtou": 1424,
      "Ġsin": 1425,
      "Ġsound": 1426,
      "Ġside": 1427,
      "oud": 1428,
      "rest": 1429,
      "Ġball": 1430,
      "Ġfour": 1431,
      "anc": 1432,
      "Ġtown": 1433,
      "ished": 1434,
      "Ġinside": 1435,
      "Ġeyes": 1436,
      "Ġhalf": 1437,
      "Ġshit": 1438,
      "light": 1439,
      "Ġmail": 1440,
      "Ġguess": 1441,
      "Ġtry": 1442,
      "Ġplane": 1443,
      "Ġgenie": 1444,
      "fin": 1445,
      "iately": 1446,
      "Ġten": 1447,
      "Ġaf": 1448,
      "Ġduck": 1449,
      "Ġdave": 1450,
      "Ġyell": 1451,
      "Ġstay": 1452,
      "Ġra": 1453,
      "who": 1454,
      "unk": 1455,
      "Ġchrist": 1456,
      "Ġmakes": 1457,
      "Ġwhole": 1458,
      "rying": 1459,
      "udent": 1460,
      "eah": 1461,
      "Ġdisc": 1462,
      "gether": 1463,
      "Ġchildren": 1464,
      "mediately": 1465,
      "Ġelse": 1466,
      "Ġbelieve": 1467,
      "20": 1468,
      "?'": 1469,
      "don": 1470,
      "ful": 1471,
      "Ġwall": 1472,
      "Ġdra": 1473,
      "Ġcat": 1474,
      "Ġfire": 1475,
      "Ġtogether": 1476,
      "ings": 1477,
      "Ġland": 1478,
      "asy": 1479,
      "Ġnumber": 1480,
      "ows": 1481,
      "stairs": 1482,
      "uring": 1483,
      "Ġround": 1484,
      "Ġqueen": 1485,
      "boy": 1486,
      "Ġturned": 1487,
      "Ġidea": 1488,
      "ha": 1489,
      "Ġadd": 1490,
      "Ġsent": 1491,
      "Ġsign": 1492,
      "iness": 1493,
      "Ġhit": 1494,
      "Ġcop": 1495,
      "Ġbeg": 1496,
      "Ġred": 1497,
      "Ġste": 1498,
      "Ġship": 1499,
      "Ġchange": 1500,
      "Ġclot": 1501,
      "Ġclos": 1502,
      "Ġvoice": 1503,
      "because": 1504,
      "Ġimp": 1505,
      "Ġimmediately": 1506,
      "ake": 1507,
      "dit": 1508,
      "iet": 1509,
      "ped": 1510,
      "ract": 1511,
      "uri": 1512,
      "Ġri": 1513,
      "Ġmil": 1514,
      "ones": 1515,
      "Ġfood": 1516,
      "Ġtom": 1517,
      "Ġnor": 1518,
      "âĢĮâĢĮ.": 1519,
      "outh": 1520,
      "roso": 1521,
      "Ġsho": 1522,
      "iled": 1523,
      "Ġjokes": 1524,
      "Ġbody": 1525,
      "Ġgirls": 1526,
      "Ġappro": 1527,
      "Ġfinds": 1528,
      "Ġhappy": 1529,
      "Ġsurpr": 1530,
      "Ġpenis": 1531,
      "Ġfamily": 1532,
      "rosoft": 1533,
      "!<": 1534,
      ">!": 1535,
      "che": 1536,
      "com": 1537,
      "cle": 1538,
      "ling": 1539,
      "ner": 1540,
      "ww": 1541,
      "Ġsing": 1542,
      "Ġbud": 1543,
      "Ġhun": 1544,
      "Ġfro": 1545,
      "Ġfig": 1546,
      "Ġfive": 1547,
      "Ġlot": 1548,
      "Ġint": 1549,
      "ical": 1550,
      "Ġwearing": 1551,
      "Ġsend": 1552,
      "Ġshop": 1553,
      "Ġknew": 1554,
      "Ġlead": 1555,
      "Ġcold": 1556,
      "Ġcomple": 1557,
      "ize": 1558,
      "Ġturns": 1559,
      "rence": 1560,
      "Ġfucked": 1561,
      "Ġdied": 1562,
      "Ġdevil": 1563,
      "Ġnaked": 1564,
      "Ġunderstand": 1565,
      "ah": 1566,
      "ken": 1567,
      "now": 1568,
      "ole": 1569,
      "priest": 1570,
      "wards": 1571,
      "Ġ>!": 1572,
      "ount": 1573,
      "rent": 1574,
      "Ġbath": 1575,
      "Ġdin": 1576,
      "Ġcow": 1577,
      "Ġcust": 1578,
      "Ġcab": 1579,
      "ense": 1580,
      "Ġnam": 1581,
      "oms": 1582,
      "owd": 1583,
      "Ġele": 1584,
      "Ġreas": 1585,
      "Ġisn": 1586,
      "Ġjack": 1587,
      "Ġwasn": 1588,
      "Ġsudd": 1589,
      "Ġlegs": 1590,
      "Ġcond": 1591,
      "Ġcost": 1592,
      "Ġoffice": 1593,
      "Ġtaking": 1594,
      "ears": 1595,
      "Ġarri": 1596,
      "Ġprof": 1597,
      "Ġground": 1598,
      "Ġagainst": 1599,
      "olog": 1600,
      "Ġhold": 1601,
      "Ġdecides": 1602,
      "stead": 1603,
      "Ġdollars": 1604,
      "Ġsudden": 1605,
      "did": 1606,
      "gre": 1607,
      "mb": 1608,
      "Ġsqu": 1609,
      "Ġdick": 1610,
      "Ġcra": 1611,
      "Ġfore": 1612,
      "Ġfact": 1613,
      "att": 1614,
      "ask": 1615,
      "Ġnice": 1616,
      "idd": 1617,
      "ush": 1618,
      "Ġeye": 1619,
      "Ġhair": 1620,
      "Ġjim": 1621,
      "Ġsheep": 1622,
      "ions": 1623,
      "Ġnear": 1624,
      "Ġlive": 1625,
      "umb": 1626,
      "reddit": 1627,
      "Ġleg": 1628,
      "Ġalong": 1629,
      "Ġofficer": 1630,
      "Ġloc": 1631,
      "Ġexc": 1632,
      "Ġblack": 1633,
      "spital": 1634,
      "Ġwaiting": 1635,
      "Ġopen": 1636,
      "Ġtalk": 1637,
      "claim": 1638,
      "Ġamerican": 1639,
      "Ġmonths": 1640,
      "microsoft": 1641,
      "aur": 1642,
      "ect": 1643,
      "just": 1644,
      "lt": 1645,
      "ness": 1646,
      "Ġ.": 1647,
      "Ġ**": 1648,
      "Ġsit": 1649,
      "oun": 1650,
      "Ġmill": 1651,
      "ering": 1652,
      "Ġdone": 1653,
      "Ġcent": 1654,
      "Ġfly": 1655,
      "Ġfish": 1656,
      "Ġpri": 1657,
      "Ġinst": 1658,
      "Ġreve": 1659,
      "irt": 1660,
      "stit": 1661,
      "Ġsand": 1662,
      "Ġsold": 1663,
      "cept": 1664,
      "Ġlear": 1665,
      "Ġworking": 1666,
      "Ġdonald": 1667,
      "Ġspea": 1668,
      "Ġhospital": 1669,
      "Ġbedroom": 1670,
      "Ġglass": 1671,
      "Ġengine": 1672,
      "Ġowner": 1673,
      "Ġgives": 1674,
      "Ġentire": 1675,
      "Ġphone": 1676,
      "Ġfavor": 1677,
      "ared": 1678,
      "cks": 1679,
      "ex": 1680,
      "ral": 1681,
      "ues": 1682,
      "vid": 1683,
      "Ġtimes": 1684,
      "Ġsus": 1685,
      "ert": 1686,
      "Ġhope": 1687,
      "Ġduring": 1688,
      "Ġfall": 1689,
      "Ġpast": 1690,
      "Ġlate": 1691,
      "Ġluck": 1692,
      "eng": 1693,
      "Ġnick": 1694,
      "Ġbeat": 1695,
      "Ġasking": 1696,
      "ently": 1697,
      "ention": 1698,
      "Ġshort": 1699,
      "Ġchar": 1700,
      "Ġchick": 1701,
      "Ġdead": 1702,
      "Ġdeath": 1703,
      "Ġknock": 1704,
      "Ġposs": 1705,
      "Ġwouldn": 1706,
      "Ġconvers": 1707,
      "ular": 1708,
      "Ġdrunk": 1709,
      "Ġprom": 1710,
      "Ġsecret": 1711,
      "Ġdrive": 1712,
      "Ġputs": 1713,
      "Ġbusiness": 1714,
      "Ġstrang": 1715,
      "ĠĠĠĠĠĠĠĠ": 1716,
      "Ġparty": 1717,
      "Ġorder": 1718,
      "Ġcollege": 1719,
      "Ġquickly": 1720,
      "Ġclothes": 1721,
      "200": 1722,
      "ming": 1723,
      "most": 1724,
      "ses": 1725,
      "Ġ&": 1726,
      "Ġtre": 1727,
      "Ġsleep": 1728,
      "inese": 1729,
      "Ġble": 1730,
      "Ġbank": 1731,
      "Ġmiss": 1732,
      "Ġhum": 1733,
      "otes": 1734,
      "Ġstuck": 1735,
      "Ġjud": 1736,
      "Ġann": 1737,
      "Ġwear": 1738,
      "Ġseat": 1739,
      "ably": 1740,
      "Ġcol": 1741,
      "Ġ10": 1742,
      "ude": 1743,
      "Ġbreak": 1744,
      "Ġadm": 1745,
      "ocked": 1746,
      "Ġfollowing": 1747,
      "Ġpulled": 1748,
      "Ġcontin": 1749,
      "Ġdifference": 1750,
      "Ġbaby": 1751,
      "Ġconversation": 1752,
      "go": 1753,
      "lic": 1754,
      "tt": 1755,
      "yeah": 1756,
      "head": 1757,
      "Ġsix": 1758,
      "ina": 1759,
      "oup": 1760,
      "ready": 1761,
      "Ġbought": 1762,
      "Ġmight": 1763,
      "ony": 1764,
      "anic": 1765,
      "Ġgay": 1766,
      "orrow": 1767,
      "Ġlim": 1768,
      "Ġlarge": 1769,
      "ither": 1770,
      "ased": 1771,
      "Ġinstead": 1772,
      "Ġevent": 1773,
      "Ġref": 1774,
      "aches": 1775,
      "Ġstep": 1776,
      "Ġmeal": 1777,
      "amn": 1778,
      "Ġtramp": 1779,
      "Ġtrying": 1780,
      "Ġalready": 1781,
      "Ġexclaim": 1782,
      "Ġplan": 1783,
      "Ġprostit": 1784,
      "Ġblind": 1785,
      "Ġflo": 1786,
      "Ġmonk": 1787,
      "Ġmarried": 1788,
      "Ġbitch": 1789,
      "Ġstanding": 1790,
      "Ġhours": 1791,
      "Ġactually": 1792,
      "Ġnotices": 1793,
      "Ġcourse": 1794,
      "Ġterri": 1795,
      "Ġwatching": 1796,
      "hematic": 1797,
      "Ġagreed": 1798,
      "Ġreveal": 1799,
      "ee": 1800,
      "of": 1801,
      "ug": 1802,
      "Ġtried": 1803,
      "here": 1804,
      "Ġice": 1805,
      "Ġbow": 1806,
      "Ġmed": 1807,
      "ork": 1808,
      "Ġpants": 1809,
      "Ġheart": 1810,
      "Ġnun": 1811,
      "ets": 1812,
      "Ġstor": 1813,
      "Ġstudent": 1814,
      "Ġjump": 1815,
      "entle": 1816,
      "entist": 1817,
      "urch": 1818,
      "Ġshot": 1819,
      "Ġupstairs": 1820,
      "Ġran": 1821,
      "Ġruss": 1822,
      "antly": 1823,
      "ung": 1824,
      "ained": 1825,
      "Ġchang": 1826,
      "artment": 1827,
      "Ġsuper": 1828,
      "Ġfema": 1829,
      "Ġart": 1830,
      "fect": 1831,
      "Ġmathematic": 1832,
      "Ġresponded": 1833,
      "Ġpresident": 1834,
      "Ġsince": 1835,
      "Ġmilk": 1836,
      "Ġfavorite": 1837,
      "Ġfemale": 1838,
      "10": 1839,
      "bed": 1840,
      "cial": 1841,
      "gr": 1842,
      "ges": 1843,
      "ls": 1844,
      "law": 1845,
      "old": 1846,
      "ric": 1847,
      "ture": 1848,
      "ward": 1849,
      "Ġz": 1850,
      "ines": 1851,
      "Ġbag": 1852,
      "Ġhur": 1853,
      "Ġgon": 1854,
      "Ġgun": 1855,
      "Ġgentle": 1856,
      "Ġpi": 1857,
      "ishes": 1858,
      "Ġob": 1859,
      "ari": 1860,
      "ott": 1861,
      "Ġreg": 1862,
      "Ġres": 1863,
      "Ġstra": 1864,
      "Ġjan": 1865,
      "Ġwhite": 1866,
      "ching": 1867,
      "Ġupv": 1868,
      "Ġring": 1869,
      "Ġdep": 1870,
      "Ġmagic": 1871,
      "Ġcoffe": 1872,
      "Ġroll": 1873,
      "Ġroad": 1874,
      "onde": 1875,
      "sol": 1876,
      "Ġthinking": 1877,
      "Ġ12": 1878,
      "Ġpregn": 1879,
      "Ġdaddy": 1880,
      "Ġkept": 1881,
      "Ġdrinks": 1882,
      "ighb": 1883,
      "upid": 1884,
      "Ġpicture": 1885,
      "Ġhuge": 1886,
      "Ġhorse": 1887,
      "Ġconfused": 1888,
      "Ġacross": 1889,
      "Ġcommun": 1890,
      "Ġcomplete": 1891,
      "Ġreason": 1892,
      "Ġcoffee": 1893,
      "?!": 1894,
      "app": 1895,
      "hi": 1896,
      "mm": 1897,
      "port": 1898,
      "wow": 1899,
      "Ġsn": 1900,
      "Ġwond": 1901,
      "Ġdark": 1902,
      "Ġcur": 1903,
      "Ġcity": 1904,
      "Ġcase": 1905,
      "Ġfing": 1906,
      "Ġfence": 1907,
      "ison": 1908,
      "Ġoh": 1909,
      "Ġlion": 1910,
      "vel": 1911,
      "Ġbegg": 1912,
      "Ġeasy": 1913,
      "Ġital": 1914,
      "acy": 1915,
      "amb": 1916,
      "tern": 1917,
      "Ġmanag": 1918,
      "Ġgolf": 1919,
      "Ġshocked": 1920,
      "Ġneighb": 1921,
      "Ġsucc": 1922,
      "Ġmaking": 1923,
      "Ġleast": 1924,
      "ians": 1925,
      "Ġwants": 1926,
      "Ġquiet": 1927,
      "Ġcalls": 1928,
      "Ġnews": 1929,
      "ucks": 1930,
      "Ġdriving": 1931,
      "Ġslow": 1932,
      "okay": 1933,
      "Ġorders": 1934,
      "Ġclean": 1935,
      "Ġirishman": 1936,
      "Ġokay": 1937,
      "Ġjewish": 1938,
      "Ġcountry": 1939,
      "Ġleaves": 1940,
      "Ġnamed": 1941,
      "Ġgonna": 1942,
      "Ġsuccess": 1943,
      "11": 1944,
      "15": 1945,
      "aven": 1946,
      "aper": 1947,
      "ci": 1948,
      "got": 1949,
      "off": 1950,
      "yed": 1951,
      "your": 1952,
      "Ġ^": 1953,
      "Ġmouth": 1954,
      "Ġdressed": 1955,
      "Ġcut": 1956,
      "ator": 1957,
      "any": 1958,
      "Ġgri": 1959,
      "Ġyet": 1960,
      "Ġlunch": 1961,
      "arr": 1962,
      "ening": 1963,
      "Ġbell": 1964,
      "Ġstupid": 1965,
      "Ġant": 1966,
      "Ġmean": 1967,
      "Ġkit": 1968,
      "âĢĿ.": 1969,
      "ters": 1970,
      "Ġchurch": 1971,
      "Ġliving": 1972,
      "Ġdem": 1973,
      "Ġexp": 1974,
      "raid": 1975,
      "Ġquite": 1976,
      "Ġblonde": 1977,
      "Ġ15": 1978,
      "Ġpray": 1979,
      "Ġprime": 1980,
      "Ġmov": 1981,
      "Ġhole": 1982,
      "Ġcake": 1983,
      "Ġdogs": 1984,
      "Ġ50": 1985,
      "Ġparr": 1986,
      "Ġreading": 1987,
      "Ġdrops": 1988,
      "Ġveg": 1989,
      "Ġnoticed": 1990,
      "Ġdifferent": 1991,
      "Ġbroke": 1992,
      "Ġmillion": 1993,
      "Ġeventually": 1994,
      "hand": 1995,
      "ler": 1996,
      "mom": 1997,
      "tr": 1998,
      "ured": 1999,
      "wa": 2000,
      "Ġty": 2001,
      "Ġsad": 2002,
      "Ġsam": 2003,
      "Ġwarm": 2004,
      "Ġmess": 2005,
      "Ġhoney": 2006,
      "Ġcal": 2007,
      "Ġcool": 2008,
      "Ġcrying": 2009,
      "Ġfar": 2010,
      "Ġpain": 2011,
      "Ġpie": 2012,
      "Ġpool": 2013,
      "esus": 2014,
      "Ġheaven": 2015,
      "Ġlist": 2016,
      "Ġless": 2017,
      "Ġner": 2018,
      "Ġbel": 2019,
      "Ġbear": 2020,
      "ics": 2021,
      "Ġready": 2022,
      "aces": 2023,
      "ached": 2024,
      "imp": 2025,
      "Ġstre": 2026,
      "Ġkiss": 2027,
      "sel": 2028,
      "urb": 2029,
      "illa": 2030,
      "Ġworst": 2031,
      "Ġbox": 2032,
      "Ġpos": 2033,
      "Ġcons": 2034,
      "Ġclim": 2035,
      "Ġgroup": 2036,
      "wered": 2037,
      "ensive": 2038,
      "rench": 2039,
      "Ġbuild": 2040,
      "Ġbreast": 2041,
      "Ġattract": 2042,
      "Ġperfect": 2043,
      "Ġanswered": 2044,
      "Ġshouts": 2045,
      "Ġresponds": 2046,
      "atio": 2047,
      "Ġyells": 2048,
      "Ġfigure": 2049,
      "Ġcustom": 2050,
      "Ġsuddenly": 2051,
      "iddle": 2052,
      "Ġlocal": 2053,
      "!'": 2054,
      ".âĢĻ": 2055,
      "ball": 2056,
      "can": 2057,
      "ged": 2058,
      "hh": 2059,
      "ili": 2060,
      "line": 2061,
      "mas": 2062,
      "net": 2063,
      "ping": 2064,
      "sf": 2065,
      "with": 2066,
      "wife": 2067,
      "Ġedit": 2068,
      "Ġsy": 2069,
      "Ġswe": 2070,
      "inal": 2071,
      "Ġwow": 2072,
      "Ġbur": 2073,
      "Ġburn": 2074,
      "err": 2075,
      "ery": 2076,
      "Ġfat": 2077,
      "Ġfair": 2078,
      "Ġfrench": 2079,
      "Ġtot": 2080,
      "Ġgor": 2081,
      "Ġgender": 2082,
      "Ġpu": 2083,
      "Ġpat": 2084,
      "Ġpunch": 2085,
      "itor": 2086,
      "Ġnur": 2087,
      "owing": 2088,
      "let": 2089,
      "Ġeither": 2090,
      "alth": 2091,
      "Ġstore": 2092,
      "ries": 2093,
      "Ġang": 2094,
      "ama": 2095,
      "terday": 2096,
      "Ġtrue": 2097,
      "Ġbob": 2098,
      "Ġknows": 2099,
      "Ġrob": 2100,
      "ortun": 2101,
      "ohn": 2102,
      "Ġdrinking": 2103,
      "Ġpassed": 2104,
      "Ġcrowd": 2105,
      "Ġswim": 2106,
      "Ġweeks": 2107,
      "iously": 2108,
      "Ġstands": 2109,
      "Ġfunny": 2110,
      "Ġplaying": 2111,
      "Ġafraid": 2112,
      "chen": 2113,
      "Ġfrog": 2114,
      "Ġspeak": 2115,
      "Ġrussian": 2116,
      "Ġcompletely": 2117,
      "Ġkitchen": 2118,
      "&#": 2119,
      "ces": 2120,
      "ef": 2121,
      "ips": 2122,
      "pers": 2123,
      "uan": 2124,
      "year": 2125,
      "zy": 2126,
      "Ġ,": 2127,
      "Ġsits": 2128,
      "Ġsna": 2129,
      "Ġbra": 2130,
      "Ġbase": 2131,
      "Ġbott": 2132,
      "Ġmus": 2133,
      "Ġdate": 2134,
      "Ġcath": 2135,
      "Ġfine": 2136,
      "Ġpeter": 2137,
      "isf": 2138,
      "Ġhears": 2139,
      "ider": 2140,
      "othe": 2141,
      "ict": 2142,
      "ade": 2143,
      "Ġkic": 2144,
      "Ġrub": 2145,
      "like": 2146,
      "Ġyourself": 2147,
      "ceed": 2148,
      "Ġnote": 2149,
      "Ġsuit": 2150,
      "Ġable": 2151,
      "Ġtrain": 2152,
      "Ġworked": 2153,
      "Ġalmost": 2154,
      "Ġext": 2155,
      "Ġexact": 2156,
      "Ġexpect": 2157,
      "Ġfeet": 2158,
      "ational": 2159,
      "Ġblue": 2160,
      "ously": 2161,
      "olic": 2162,
      "ully": 2163,
      "Ġsla": 2164,
      "Ġattention": 2165,
      "Ġadv": 2166,
      "Ġcheck": 2167,
      "Ġseconds": 2168,
      "ÂłĊ": 2169,
      "Ġserve": 2170,
      "rupt": 2171,
      "Ġidi": 2172,
      "Ġrunning": 2173,
      "Ġreturned": 2174,
      "Ġanswers": 2175,
      "Ġbecome": 2176,
      "Ġpoliceman": 2177,
      "Ġsilver": 2178,
      "Ġapartment": 2179,
      "Ġvisit": 2180,
      "Ġprostitute": 2181,
      "Ġfloor": 2182,
      "Ġmathematician": 2183,
      "Ġgentleman": 2184,
      "Ġpregnant": 2185,
      "sfw": 2186,
      "//": 2187,
      ":\"": 2188,
      "://": 2189,
      "ding": 2190,
      "good": 2191,
      "hor": 2192,
      "his": 2193,
      "ike": 2194,
      "oved": 2195,
      "set": 2196,
      "Ġes": 2197,
      "Ġsca": 2198,
      "ined": 2199,
      "Ġwood": 2200,
      "rect": 2201,
      "Ġbat": 2202,
      "Ġboo": 2203,
      "Ġmate": 2204,
      "ndred": 2205,
      "once": 2206,
      "Ġdist": 2207,
      "Ġdress": 2208,
      "Ġcure": 2209,
      "Ġcatch": 2210,
      "Ġferr": 2211,
      "ature": 2212,
      "Ġgard": 2213,
      "Ġpot": 2214,
      "Ġpet": 2215,
      "Ġpound": 2216,
      "Ġpick": 2217,
      "Ġpati": 2218,
      "ises": 2219,
      "Ġobs": 2220,
      "Ġlord": 2221,
      "Ġloud": 2222,
      "Ġinc": 2223,
      "Ġins": 2224,
      "oman": 2225,
      "ically": 2226,
      "Ġrel": 2227,
      "Ġmeas": 2228,
      "Ġrus": 2229,
      "Ġlived": 2230,
      "Ġdear": 2231,
      "Ġdeep": 2232,
      "iles": 2233,
      "ored": 2234,
      "ists": 2235,
      "Ġpock": 2236,
      "asturb": 2237,
      "Ġtaken": 2238,
      "Ġspend": 2239,
      "ulb": 2240,
      "Ġclub": 2241,
      "wel": 2242,
      "Ġbrought": 2243,
      "Ġmos": 2244,
      "Ġuncle": 2245,
      "Ġimag": 2246,
      "Ġflag": 2247,
      "Ġfoot": 2248,
      "Ġheads": 2249,
      "Ġmark": 2250,
      "Ġpark": 2251,
      "Ġearly": 2252,
      "Ġserv": 2253,
      "Ġpicked": 2254,
      "Ġmaybe": 2255,
      "Ġruns": 2256,
      "Ġletters": 2257,
      "Ġfavour": 2258,
      "Ġrestaur": 2259,
      "Ġfellow": 2260,
      "Ġenglishman": 2261,
      "Ġlaughs": 2262,
      "Ġscreaming": 2263,
      "Ġbegan": 2264,
      "Ġbudd": 2265,
      "Ġprofess": 2266,
      "ounced": 2267,
      "Ġstranger": 2268,
      "Ġblew": 2269,
      "ttps": 2270,
      "Ġexclaimed": 2271,
      "Ġterrible": 2272,
      "Ġstraight": 2273,
      "Ġbeggar": 2274,
      "Ġrestaurant": 2275,
      ".*": 2276,
      "](": 2277,
      "ey": 2278,
      "every": 2279,
      "fast": 2280,
      "fuck": 2281,
      "https": 2282,
      "more": 2283,
      "pop": 2284,
      "uation": 2285,
      "Ġaust": 2286,
      "Ġaff": 2287,
      "Ġbird": 2288,
      "Ġbook": 2289,
      "Ġhon": 2290,
      "Ġhate": 2291,
      "Ġdie": 2292,
      "Ġdamn": 2293,
      "Ġcup": 2294,
      "Ġtowards": 2295,
      "Ġgy": 2296,
      "Ġger": 2297,
      "Ġpir": 2298,
      "Ġporn": 2299,
      "Ġpub": 2300,
      "isc": 2301,
      "ism": 2302,
      "Ġopp": 2303,
      "ene": 2304,
      "Ġthough": 2305,
      "Ġinte": 2306,
      "Ġinfor": 2307,
      "ower": 2308,
      "ices": 2309,
      "Ġegg": 2310,
      "Ġrece": 2311,
      "Ġisra": 2312,
      "vert": 2313,
      "aced": 2314,
      "Ġstood": 2315,
      "Ġje": 2316,
      "Ġjones": 2317,
      "oose": 2318,
      "Ġmem": 2319,
      "Ġsol": 2320,
      "ains": 2321,
      "Ġtra": 2322,
      "Ġcomment": 2323,
      "Ġlover": 2324,
      "Ġfelt": 2325,
      "Ġhowever": 2326,
      "Ġvi": 2327,
      "ations": 2328,
      "Ġenjo": 2329,
      "Ġmove": 2330,
      "Ġboyfriend": 2331,
      "arma": 2332,
      "tered": 2333,
      "Ġshows": 2334,
      "Ġbreath": 2335,
      "Ġwaiter": 2336,
      "job": 2337,
      "Ġreturns": 2338,
      "Ġsatisf": 2339,
      "Ġhundred": 2340,
      "Ġbecame": 2341,
      "Ġskirt": 2342,
      "Ġaccident": 2343,
      "Ġfeeling": 2344,
      "Ġpresent": 2345,
      "Ġenglish": 2346,
      "Ġpaper": 2347,
      "finite": 2348,
      "Ġshoes": 2349,
      "Ġsingle": 2350,
      "Ġdinner": 2351,
      "Ġpriv": 2352,
      "Ġsandw": 2353,
      "Ġbreakfast": 2354,
      "Ġfinger": 2355,
      "Ġstreet": 2356,
      "selves": 2357,
      "Ġattractive": 2358,
      "Ġgorilla": 2359,
      "Ġcatholic": 2360,
      "Ġferrari": 2361,
      "Ġgarden": 2362,
      ":**": 2363,
      "con": 2364,
      "come": 2365,
      "de": 2366,
      "ject": 2367,
      "men": 2368,
      "over": 2369,
      "sing": 2370,
      "some": 2371,
      "Ġsli": 2372,
      "inc": 2373,
      "ink": 2374,
      "Ġwit": 2375,
      "Ġbri": 2376,
      "Ġborn": 2377,
      "Ġmid": 2378,
      "Ġmic": 2379,
      "Ġmist": 2380,
      "Ġmass": 2381,
      "Ġdentist": 2382,
      "Ġcard": 2383,
      "Ġcross": 2384,
      "Ġfired": 2385,
      "Ġflight": 2386,
      "Ġgh": 2387,
      "Ġgas": 2388,
      "Ġgra": 2389,
      "Ġhearing": 2390,
      "Ġla": 2391,
      "Ġinches": 2392,
      "Ġonto": 2393,
      "irty": 2394,
      "vern": 2395,
      "Ġforget": 2396,
      "uter": 2397,
      "Ġstar": 2398,
      "Ġstate": 2399,
      "amm": 2400,
      "ams": 2401,
      "Ġsea": 2402,
      "Ġsell": 2403,
      "Ġsave": 2404,
      "ands": 2405,
      "Ġchie": 2406,
      "Ġdeal": 2407,
      "ume": 2408,
      "que": 2409,
      "Ġreport": 2410,
      "Ġrepost": 2411,
      "Ġcompl": 2412,
      "aste": 2413,
      "Ġvag": 2414,
      "Ġblood": 2415,
      "Ġ100": 2416,
      "Ġtelling": 2417,
      "Ġsmoke": 2418,
      "Ġsmiles": 2419,
      "Ġtex": 2420,
      "Ġdecide": 2421,
      "Ġdisapp": 2422,
      "doctor": 2423,
      "Ġbread": 2424,
      "ship": 2425,
      "Ġattend": 2426,
      "gging": 2427,
      "Ġstrange": 2428,
      "Ġdesire": 2429,
      "Ġearth": 2430,
      "Ġgiving": 2431,
      "Ġrecru": 2432,
      "Ġgener": 2433,
      "Ġpicks": 2434,
      "arently": 2435,
      "Ġamerica": 2436,
      "Ġbecom": 2437,
      "Ġrealized": 2438,
      "Ġwords": 2439,
      "Ġexplained": 2440,
      "Ġkingd": 2441,
      "Ġballs": 2442,
      "www": 2443,
      "greg": 2444,
      "Ġforest": 2445,
      "Ġexcited": 2446,
      "Ġsituation": 2447,
      "Ġfairy": 2448,
      "Ġfavourite": 2449,
      "Ġgerman": 2450,
      "Ġinterest": 2451,
      "Ġrecruit": 2452,
      "30": 2453,
      "??": 2454,
      "aking": 2455,
      "der": 2456,
      "fr": 2457,
      "gen": 2458,
      "give": 2459,
      "ives": 2460,
      "look": 2461,
      "nsfw": 2462,
      "sure": 2463,
      "ta": 2464,
      "zz": 2465,
      "zan": 2466,
      "Ġed": 2467,
      "Ġathe": 2468,
      "Ġsid": 2469,
      "Ġwishes": 2470,
      "res": 2471,
      "read": 2472,
      "Ġbas": 2473,
      "Ġmal": 2474,
      "Ġmath": 2475,
      "Ġhop": 2476,
      "Ġhol": 2477,
      "Ġcorn": 2478,
      "Ġcash": 2479,
      "Ġfit": 2480,
      "oral": 2481,
      "Ġ\"$": 2482,
      "ician": 2483,
      "Ġeating": 2484,
      "Ġitching": 2485,
      "eth": 2486,
      "acks": 2487,
      "riff": 2488,
      "Ġwhore": 2489,
      "enty": 2490,
      "Ġweather": 2491,
      "Ġkarma": 2492,
      "Ġsail": 2493,
      "three": 2494,
      "Ġupon": 2495,
      "Ġru": 2496,
      "Ġbutton": 2497,
      "Ġlibr": 2498,
      "pping": 2499,
      "Ġsum": 2500,
      "Ġfru": 2501,
      "umps": 2502,
      "Ġlemon": 2503,
      "Ġtrave": 2504,
      "Ġlose": 2505,
      "Ġlogic": 2506,
      "Ġspot": 2507,
      "ights": 2508,
      "Ġvir": 2509,
      "Ġ18": 2510,
      "Ġsmile": 2511,
      "Ġsmiled": 2512,
      "aught": 2513,
      "Ġcarry": 2514,
      "Ġdecl": 2515,
      "pered": 2516,
      "Ġfinished": 2517,
      "Ġgrew": 2518,
      "Ġjobs": 2519,
      "Ġstops": 2520,
      "Ġpulls": 2521,
      "Ġdropped": 2522,
      "stein": 2523,
      "Ġyesterday": 2524,
      "Ġempt": 2525,
      "Ġairport": 2526,
      "Ġinternet": 2527,
      "Ġspecial": 2528,
      "Ġamazing": 2529,
      "Ġmailman": 2530,
      "finally": 2531,
      "Ġdiscuss": 2532,
      "Ġtomorrow": 2533,
      "Ġbathroom": 2534,
      "Ġcrazy": 2535,
      "Ġsuspect": 2536,
      "Ġjanitor": 2537,
      "Ġdepressed": 2538,
      "Ġslowly": 2539,
      "Ġmovie": 2540,
      "Ġvegas": 2541,
      "Ġtotally": 2542,
      "88": 2543,
      "[**": 2544,
      "bably": 2545,
      "cy": 2546,
      "cing": 2547,
      "fully": 2548,
      "gy": 2549,
      "ience": 2550,
      "ivers": 2551,
      "john": 2552,
      "oking": 2553,
      "ued": 2554,
      "yo": 2555,
      "Ġ~": 2556,
      "Ġtro": 2557,
      "Ġtaste": 2558,
      "Ġaut": 2559,
      "Ġahead": 2560,
      "Ġsun": 2561,
      "Ġsick": 2562,
      "Ġwar": 2563,
      "Ġbes": 2564,
      "Ġmr": 2565,
      "Ġmasturb": 2566,
      "Ġhar": 2567,
      "Ġhill": 2568,
      "Ġhide": 2569,
      "Ġhang": 2570,
      "Ġdest": 2571,
      "Ġdire": 2572,
      "Ġdies": 2573,
      "Ġdue": 2574,
      "Ġfre": 2575,
      "Ġfur": 2576,
      "Ġfight": 2577,
      "Ġfix": 2578,
      "anese": 2579,
      "Ġgates": 2580,
      "Ġpoo": 2581,
      "Ġpig": 2582,
      "Ġnone": 2583,
      "âĢĮâĢĮ!": 2584,
      "âĢĮâĢĮ\"": 2585,
      "owed": 2586,
      "uses": 2587,
      "ican": 2588,
      "Ġep": 2589,
      "Ġeve": 2590,
      "alright": 2591,
      "Ġasleep": 2592,
      "Ġkick": 2593,
      "sec": 2594,
      "chinese": 2595,
      "Ġchall": 2596,
      "Ġcanad": 2597,
      "Ġcannot": 2598,
      "Ġknoc": 2599,
      "today": 2600,
      "Ġabove": 2601,
      "Ġabsol": 2602,
      "Ġworry": 2603,
      "Ġpoor": 2604,
      "Ġoffic": 2605,
      "Ġthemselves": 2606,
      "Ġnobody": 2607,
      "Ġexam": 2608,
      "Ġplaces": 2609,
      "Ġarms": 2610,
      "Ġarrest": 2611,
      "arely": 2612,
      "Ġproceed": 2613,
      "Ġseem": 2614,
      "Ġseemed": 2615,
      "ages": 2616,
      "again": 2617,
      "**](": 2618,
      "**[**": 2619,
      "aug": 2620,
      "Ġboys": 2621,
      "Ġscrew": 2622,
      "belie": 2623,
      "Ġcoun": 2624,
      "Ġthrows": 2625,
      "Ġwaitress": 2626,
      "Ġsurv": 2627,
      "Ġopened": 2628,
      "Ġglad": 2629,
      "abbie": 2630,
      "Ġpolit": 2631,
      "Ġstopped": 2632,
      "Ġcomputer": 2633,
      "Ġremind": 2634,
      "Ġremoved": 2635,
      "Ġterm": 2636,
      "Ġwhiskey": 2637,
      "Ġwhispers": 2638,
      "Ġsales": 2639,
      "Ġcorrect": 2640,
      "Ġpoints": 2641,
      "Ġtouch": 2642,
      "Ġchristian": 2643,
      "Ġdraw": 2644,
      "urious": 2645,
      "Ġapproaches": 2646,
      "Ġsurprise": 2647,
      "Ġsurprised": 2648,
      "Ġnearby": 2649,
      "Ġlearned": 2650,
      "Ġengineer": 2651,
      "Ġpossible": 2652,
      "Ġmedic": 2653,
      "Ġupvotes": 2654,
      "Ġitalian": 2655,
      "officer": 2656,
      "Ġidiot": 2657,
      "Ġpounds": 2658,
      "Ġpatient": 2659,
      "Ġprofessor": 2660,
      "Ġaustral": 2661,
      "Ġeggs": 2662,
      "Ġvagina": 2663,
      "Ġtexas": 2664,
      "Ġatheist": 2665,
      "500": 2666,
      "?!\"": 2667,
      "\\-": 2668,
      "bb": 2669,
      "cer": 2670,
      "fer": 2671,
      "ging": 2672,
      "husband": 2673,
      "io": 2674,
      "la": 2675,
      "later": 2676,
      "night": 2677,
      "nel": 2678,
      "po": 2679,
      "pro": 2680,
      "rr": 2681,
      "ror": 2682,
      "uct": 2683,
      "viously": 2684,
      "word": 2685,
      "Ġtit": 2686,
      "Ġtim": 2687,
      "ouble": 2688,
      "Ġign": 2689,
      "Ġben": 2690,
      "Ġbull": 2691,
      "Ġbang": 2692,
      "Ġmot": 2693,
      "Ġmall": 2694,
      "Ġdan": 2695,
      "Ġdumb": 2696,
      "Ġcir": 2697,
      "Ġcook": 2698,
      "Ġcert": 2699,
      "Ġfa": 2700,
      "Ġfu": 2701,
      "Ġfill": 2702,
      "Ġfast": 2703,
      "ato": 2704,
      "ative": 2705,
      "anna": 2706,
      "eding": 2707,
      "Ġgro": 2708,
      "orian": 2709,
      "Ġpant": 2710,
      "Ġpun": 2711,
      "Ġpack": 2712,
      "Ġpil": 2713,
      "Ġpanic": 2714,
      "llo": 2715,
      "Ġodd": 2716,
      "Ġhey": 2717,
      "Ġlit": 2718,
      "Ġlay": 2719,
      "Ġlying": 2720,
      "arzan": 2721,
      "Ġnon": 2722,
      "Ġ\"âĢĮâĢĮ": 2723,
      "iday": 2724,
      "user": 2725,
      "Ġbeach": 2726,
      "veral": 2727,
      "Ġforgot": 2728,
      "ution": 2729,
      "Ġstick": 2730,
      "Ġstairs": 2731,
      "Ġjumps": 2732,
      "Ġange": 2733,
      "Ġanno": 2734,
      "Ġmeans": 2735,
      "Ġweird": 2736,
      "Ġkore": 2737,
      "Ġsear": 2738,
      "Ġate": 2739,
      "ander": 2740,
      "oped": 2741,
      "lig": 2742,
      "Ġaren": 2743,
      "anta": 2744,
      "Ġdef": 2745,
      "Ġcann": 2746,
      "Ġmale": 2747,
      "Ġguards": 2748,
      "ables": 2749,
      "Ġcovid": 2750,
      "Ġalone": 2751,
      "iger": 2752,
      "Ġspent": 2753,
      "Ġexper": 2754,
      "Ġorange": 2755,
      "Ġprobably": 2756,
      "Ġolder": 2757,
      "Ġgrab": 2758,
      "Ġanymore": 2759,
      "Ġbrit": 2760,
      "Ġprep": 2761,
      "udd": 2762,
      "Ġpract": 2763,
      "Ġteen": 2764,
      "Ġunited": 2765,
      "Ġhanded": 2766,
      "Ġapple": 2767,
      "Ġflat": 2768,
      "Ġhappen": 2769,
      "Ġpassion": 2770,
      "shman": 2771,
      "Ġsurger": 2772,
      "Ġevening": 2773,
      "Ġcru": 2774,
      "Ġswit": 2775,
      "Ġneeds": 2776,
      "Ġstrong": 2777,
      "Ġfollows": 2778,
      "Ġcontro": 2779,
      "Ġkilled": 2780,
      "Ġshouted": 2781,
      "Ġshouting": 2782,
      "Ġclear": 2783,
      "Ġaccount": 2784,
      "Ġgrandma": 2785,
      "Ġgrandfather": 2786,
      "Ġwhispered": 2787,
      "ibly": 2788,
      "Ġleaving": 2789,
      "Ġagrees": 2790,
      "Ġchristmas": 2791,
      "Ġnorth": 2792,
      "Ġsends": 2793,
      "Ġsusp": 2794,
      "engl": 2795,
      "Ġchickens": 2796,
      "Ġjudges": 2797,
      "Ġjumped": 2798,
      "Ġchanged": 2799,
      "lawyer": 2800,
      "wait": 2801,
      "Ġposition": 2802,
      "Ġpocket": 2803,
      "Ġisrael": 2804,
      "Ġmemory": 2805,
      "Ġghost": 2806,
      "'âĢĮâĢĮ": 2807,
      "?âĢĻ": 2808,
      "ale": 2809,
      "back": 2810,
      "dong": 2811,
      "hot": 2812,
      "ior": 2813,
      "ient": 2814,
      "jack": 2815,
      "mpt": 2816,
      "ob": 2817,
      "oid": 2818,
      "oli": 2819,
      "sm": 2820,
      "sir": 2821,
      "sorry": 2822,
      "ugg": 2823,
      "zen": 2824,
      "Ġ[": 2825,
      "Ġtight": 2826,
      "hen": 2827,
      "Ġsou": 2828,
      "Ġsle": 2829,
      "Ġsim": 2830,
      "Ġsort": 2831,
      "Ġwild": 2832,
      "Ġmur": 2833,
      "Ġmach": 2834,
      "Ġmatch": 2835,
      "Ġmask": 2836,
      "Ġmiddle": 2837,
      "Ġhous": 2838,
      "Ġdet": 2839,
      "Ġdav": 2840,
      "Ġducks": 2841,
      "Ġdirty": 2842,
      "Ġcre": 2843,
      "Ġcam": 2844,
      "Ġcaught": 2845,
      "Ġfail": 2846,
      "Ġfaster": 2847,
      "Ġtoile": 2848,
      "Ġpair": 2849,
      "Ġyo": 2850,
      "Ġopt": 2851,
      "Ġoper": 2852,
      "Ġhealth": 2853,
      "arian": 2854,
      "enhot": 2855,
      "Ġoften": 2856,
      "ides": 2857,
      "Ġetern": 2858,
      "Ġreact": 2859,
      "Ġhaven": 2860,
      "iment": 2861,
      "Ġjesus": 2862,
      "Ġug": 2863,
      "Ġanim": 2864,
      "Ġwel": 2865,
      "Ġweed": 2866,
      "Ġsafe": 2867,
      "than": 2868,
      "ific": 2869,
      "Ġsha": 2870,
      "Ġshut": 2871,
      "Ġshare": 2872,
      "Ġbutt": 2873,
      "Ġlives": 2874,
      "Ġdeli": 2875,
      "geon": 2876,
      "Ġnotice": 2877,
      "redit": 2878,
      "Ġtruck": 2879,
      "Ġcommon": 2880,
      "Ġalright": 2881,
      "Ġconst": 2882,
      "Ġspoke": 2883,
      "Ġspread": 2884,
      "eper": 2885,
      "Ġquack": 2886,
      "Ġprop": 2887,
      "Ġproper": 2888,
      "Ġgrant": 2889,
      "Ġ1000": 2890,
      "ĠĠĠĠĊ": 2891,
      "Ġbrothe": 2892,
      "Ġpress": 2893,
      "Ġprison": 2894,
      "Ġteam": 2895,
      "board": 2896,
      "Ġmommy": 2897,
      "Ġapparently": 2898,
      "Ġholy": 2899,
      "Ġhappens": 2900,
      "iped": 2901,
      "Ġ30": 2902,
      "Ġshower": 2903,
      "osed": 2904,
      "shit": 2905,
      "Ġpleas": 2906,
      "Ġlifebo": 2907,
      "jokes": 2908,
      "Ġserious": 2909,
      "Ġkeeps": 2910,
      "Ġcompany": 2911,
      "Ġamericans": 2912,
      "Ġhotel": 2913,
      "utely": 2914,
      "Ġdevice": 2915,
      "Ġcourt": 2916,
      "Ġjews": 2917,
      "Ġwinter": 2918,
      "Ġ2020": 2919,
      "Ġblowjob": 2920,
      "Ġtouched": 2921,
      "ancy": 2922,
      "Ġaddress": 2923,
      "Ġleader": 2924,
      "Ġelect": 2925,
      "Ġholding": 2926,
      "Ġlucky": 2927,
      "Ġchicken": 2928,
      "Ġhuman": 2929,
      "Ġannounced": 2930,
      "Ġartist": 2931,
      "Ġhurt": 2932,
      "Ġcommunity": 2933,
      "Ġwonder": 2934,
      "Ġmanager": 2935,
      "Ġanti": 2936,
      "Ġparrots": 2937,
      "handed": 2938,
      "Ġbelow": 2939,
      "Ġpunchline": 2940,
      "Ġextra": 2941,
      "Ġservice": 2942,
      "Ġslipped": 2943,
      "Ġwitness": 2944,
      "vernment": 2945,
      "Ġempty": 2946,
      "Ġbeside": 2947,
      "Ġcounter": 2948,
      "Ġmedicine": 2949,
      "Ġpilot": 2950,
      "Ġsurgery": 2951,
      "Ġmachine": 2952,
      "Ġtoilet": 2953,
      "enhotep": 2954,
      "Ġbrothel": 2955,
      ",'": 2956,
      "--": 2957,
      "19": 2958,
      "27": 2959,
      "56": 2960,
      "bl": 2961,
      "bing": 2962,
      "daughter": 2963,
      "house": 2964,
      "ik": 2965,
      "lo": 2966,
      "life": 2967,
      "mate": 2968,
      "mation": 2969,
      "rit": 2970,
      "sy": 2971,
      "time": 2972,
      "tarzan": 2973,
      "ux": 2974,
      "uff": 2975,
      "wear": 2976,
      "za": 2977,
      "Ġx": 2978,
      "Ġtall": 2979,
      "Ġtired": 2980,
      "Ġtears": 2981,
      "Ġaver": 2982,
      "Ġsize": 2983,
      "Ġsense": 2984,
      "inting": 2985,
      "Ġwat": 2986,
      "Ġbarely": 2987,
      "Ġmas": 2988,
      "Ġmain": 2989,
      "Ġmine": 2990,
      "Ġmort": 2991,
      "Ġmaster": 2992,
      "onny": 2993,
      "Ġhy": 2994,
      "Ġding": 2995,
      "Ġcher": 2996,
      "Ġcrew": 2997,
      "Ġfet": 2998,
      "Ġfut": 2999,
      "ani": 3000,
      "anian": 3001,
      "Ġgone": 3002,
      "Ġgame": 3003,
      "Ġpan": 3004,
      "Ġpal": 3005,
      "Ġpowd": 3006,
      "ising": 3007,
      "Ġlad": 3008,
      "Ġlots": 3009,
      "Ġlaug": 3010,
      "Ġtha": 3011,
      "Ġnic": 3012,
      "omy": 3013,
      "vered": 3014,
      "lebr": 3015,
      "icks": 3016,
      "icide": 3017,
      ".....": 3018,
      "Ġstates": 3019,
      "Ġund": 3020,
      "student": 3021,
      "Ġwithin": 3022,
      "Ġgovernment": 3023,
      "thank": 3024,
      "iff": 3025,
      "Ġupset": 3026,
      "Ġrome": 3027,
      "Ġrich": 3028,
      "illage": 3029,
      "lies": 3030,
      "unt": 3031,
      "aining": 3032,
      "Ġchair": 3033,
      "Ġchoice": 3034,
      "Ġwheel": 3035,
      "Ġlie": 3036,
      "Ġdea": 3037,
      "ppy": 3038,
      "ila": 3039,
      "Ġfrank": 3040,
      "Ġjoy": 3041,
      "Ġtrans": 3042,
      "Ġworried": 3043,
      "Ġreply": 3044,
      "Ġdonkey": 3045,
      "Ġexcept": 3046,
      "Ġfeed": 3047,
      "Ġarm": 3048,
      "Ġarab": 3049,
      "Ġorg": 3050,
      "Ġvillage": 3051,
      "Ġeverybody": 3052,
      "Ġtwice": 3053,
      "Ġseems": 3054,
      "Ġgrim": 3055,
      "iew": 3056,
      "Ġamount": 3057,
      "Ġcalling": 3058,
      "ures": 3059,
      "Ġsmell": 3060,
      "Ġtele": 3061,
      "please": 3062,
      "Ġscr": 3063,
      "Ġfinal": 3064,
      "Ġfinish": 3065,
      "Ġkey": 3066,
      "avy": 3067,
      "Ġminute": 3068,
      "Ġshowed": 3069,
      "Ġpassing": 3070,
      "Ġpasses": 3071,
      "Ġpassword": 3072,
      "Ġattack": 3073,
      "Ġadam": 3074,
      "Ġawards": 3075,
      "maid": 3076,
      "Ġfollowed": 3077,
      "Ġrecently": 3078,
      "Ġreads": 3079,
      "Ġenters": 3080,
      "Ġdrove": 3081,
      "Ġvet": 3082,
      "ussy": 3083,
      "Ġpersonal": 3084,
      "Ġrealize": 3085,
      "daddy": 3086,
      "Ġmatter": 3087,
      "phy": 3088,
      "phone": 3089,
      "iero": 3090,
      "Ġaccept": 3091,
      "guy": 3092,
      "Ġlaughing": 3093,
      "Ġcoron": 3094,
      "Ġapolog": 3095,
      "Ġcelebr": 3096,
      "Ġamazed": 3097,
      "Ġcloset": 3098,
      "Ġshoot": 3099,
      "Ġhunter": 3100,
      "Ġleads": 3101,
      "Ġarrives": 3102,
      "Ġinstantly": 3103,
      "Ġsoldier": 3104,
      "exc": 3105,
      "ĠĠĠĠĠĠĠĠĠĠĠĠĠĠĠĠ": 3106,
      "Ġstudents": 3107,
      "Ġzoo": 3108,
      "Ġpik": 3109,
      "Ġneighbor": 3110,
      "Ġgrip": 3111,
      "Ġexpensive": 3112,
      "trump": 3113,
      "Ġtype": 3114,
      "Ġbuilding": 3115,
      "Ġbreasts": 3116,
      "ortunity": 3117,
      "Ġsnake": 3118,
      "Ġexactly": 3119,
      "Ġhonest": 3120,
      "Ġopportunity": 3121,
      "Ġprivate": 3122,
      "Ġbrief": 3123,
      "Ġkingdom": 3124,
      "Ġsummon": 3125,
      "Ġdirect": 3126,
      "Ġabsolutely": 3127,
      "thanks": 3128,
      "Ġaverage": 3129,
      "Ġpowder": 3130,
      "Ġlaughed": 3131,
      "44": 3132,
      "ax": 3133,
      "bian": 3134,
      "bulb": 3135,
      "cking": 3136,
      "cong": 3137,
      "coh": 3138,
      "down": 3139,
      "fic": 3140,
      "fort": 3141,
      "gon": 3142,
      "god": 3143,
      "ho": 3144,
      "ij": 3145,
      "ived": 3146,
      "last": 3147,
      "nes": 3148,
      "oon": 3149,
      "sat": 3150,
      "val": 3151,
      "woman": 3152,
      "Ġ?": 3153,
      "Ġtin": 3154,
      "Ġtur": 3155,
      "hello": 3156,
      "Ġsouth": 3157,
      "inary": 3158,
      "reme": 3159,
      "Ġira": 3160,
      "Ġille": 3161,
      "Ġbak": 3162,
      "Ġbunch": 3163,
      "Ġmir": 3164,
      "Ġmum": 3165,
      "Ġmong": 3166,
      "erm": 3167,
      "eral": 3168,
      "Ġhood": 3169,
      "Ġden": 3170,
      "Ġcro": 3171,
      "Ġcry": 3172,
      "Ġfil": 3173,
      "Ġpiz": 3174,
      "Ġpimp": 3175,
      "Ġpower": 3176,
      "Ġpussy": 3177,
      "Ġyeah": 3178,
      "Ġocc": 3179,
      "Ġlang": 3180,
      "Ġthrew": 3181,
      "Ġnational": 3182,
      "lex": 3183,
      "Ġbee": 3184,
      "iches": 3185,
      "icles": 3186,
      "Ġeas": 3187,
      "Ġrele": 3188,
      "Ġreaches": 3189,
      "Ġrelig": 3190,
      "Ġforce": 3191,
      "Ġforward": 3192,
      "Ġstat": 3193,
      "Ġstud": 3194,
      "Ġjane": 3195,
      "Ġjonny": 3196,
      "riage": 3197,
      "Ġaston": 3198,
      "str": 3199,
      "Ġanal": 3200,
      "oooo": 3201,
      "Ġweight": 3202,
      "Ġmans": 3203,
      "urse": 3204,
      "ified": 3205,
      "Ġshock": 3206,
      "Ġherself": 3207,
      "Ġrang": 3208,
      "Ġrap": 3209,
      "usted": 3210,
      "Ġcharge": 3211,
      "Ġdeb": 3212,
      "Ġsuck": 3213,
      "Ġsuicide": 3214,
      "Ġguest": 3215,
      "Ġboard": 3216,
      "Ġcock": 3217,
      "Ġagent": 3218,
      "ession": 3219,
      "ounded": 3220,
      "astic": 3221,
      "Ġoffered": 3222,
      "igned": 3223,
      "Ġload": 3224,
      "Ġloss": 3225,
      "Ġknowing": 3226,
      "Ġcongreg": 3227,
      "rap": 3228,
      "ults": 3229,
      "Ġclose": 3230,
      "Ġorig": 3231,
      "Ġeverywhere": 3232,
      "Ġquiero": 3233,
      "Ġdownstairs": 3234,
      "ager": 3235,
      "ield": 3236,
      "Ġamenhotep": 3237,
      "thern": 3238,
      "Ġprotes": 3239,
      "noon": 3240,
      "berg": 3241,
      "**:": 3242,
      "Ġwakes": 3243,
      "Ġothers": 3244,
      "ires": 3245,
      "before": 3246,
      "plo": 3247,
      "play": 3248,
      "Ġdisbelie": 3249,
      "Ġshouldn": 3250,
      "Ġshoulder": 3251,
      "Ġsurf": 3252,
      "Ġsurgeon": 3253,
      "Ġwrite": 3254,
      "Ġdesk": 3255,
      "oken": 3256,
      "next": 3257,
      "Ġgiven": 3258,
      "Ġlightbulb": 3259,
      "Ġpretend": 3260,
      "Ġhoratio": 3261,
      "Ġexplains": 3262,
      "Ġcourage": 3263,
      "Ġ40": 3264,
      "Ġindian": 3265,
      "Ġsilent": 3266,
      "Ġbabies": 3267,
      "Ġpops": 3268,
      "Ġinvest": 3269,
      "Ġinvited": 3270,
      "Ġtrip": 3271,
      "Ġfourth": 3272,
      "ances": 3273,
      "Ġyelled": 3274,
      "Ġraised": 3275,
      "donald": 3276,
      "Ġsentence": 3277,
      "Ġsigns": 3278,
      "Ġbegins": 3279,
      "Ġcloser": 3280,
      "Ġnorm": 3281,
      "Ġbuddy": 3282,
      "Ġhunting": 3283,
      "Ġcustoms": 3284,
      "Ġcondoms": 3285,
      "Ġprize": 3286,
      "Ġpossibly": 3287,
      "Ġcontinued": 3288,
      "Ġmanaged": 3289,
      "Ġneighbour": 3290,
      "arrass": 3291,
      "Ġparrot": 3292,
      "Ġnerv": 3293,
      "Ġnurse": 3294,
      "Ġangry": 3295,
      "Ġbottom": 3296,
      "iction": 3297,
      "Ġkicked": 3298,
      "Ġpotato": 3299,
      "Ġimagine": 3300,
      ".*.*": 3301,
      "Ġpirate": 3302,
      "Ġvirg": 3303,
      "Ġdeclare": 3304,
      "Ġexample": 3305,
      "Ġarrested": 3306,
      "Ġignore": 3307,
      "Ġcannib": 3308,
      "Ġsuspic": 3309,
      "englishman": 3310,
      "olian": 3311,
      "Ġslept": 3312,
      "Ġeternity": 3313,
      "Ġfuture": 3314,
      "Ġdeaf": 3315,
      "excuse": 3316,
      "Ġsummoned": 3317,
      "congr": 3318,
      "Ġiraq": 3319,
      "Ġilleg": 3320,
      "Ġmongolian": 3321,
      "Ġpizza": 3322,
      "Ġlangu": 3323,
      "Ġdisbelief": 3324,
      "):": 3325,
      "75": 3326,
      "99": 3327,
      "bill": 3328,
      "bell": 3329,
      "barrass": 3330,
      "co": 3331,
      "car": 3332,
      "cent": 3333,
      "cked": 3334,
      "dave": 3335,
      "fortun": 3336,
      "hood": 3337,
      "have": 3338,
      "honey": 3339,
      "jesus": 3340,
      "loo": 3341,
      "may": 3342,
      "meter": 3343,
      "name": 3344,
      "number": 3345,
      "oons": 3346,
      "put": 3347,
      "pol": 3348,
      "rs": 3349,
      "sven": 3350,
      "ugs": 3351,
      "work": 3352,
      "Ġer": 3353,
      "Ġton": 3354,
      "Ġtour": 3355,
      "het": 3356,
      "Ġav": 3357,
      "Ġaid": 3358,
      "Ġsanta": 3359,
      "Ġwed": 3360,
      "Ġwet": 3361,
      "Ġwine": 3362,
      "Ġwave": 3363,
      "Ġiphone": 3364,
      "Ġbal": 3365,
      "Ġbother": 3366,
      "Ġborrow": 3367,
      "Ġmart": 3368,
      "Ġmoped": 3369,
      "onse": 3370,
      "Ġhig": 3371,
      "Ġdig": 3372,
      "Ġdream": 3373,
      "Ġdorian": 3374,
      "Ġcig": 3375,
      "Ġcabbie": 3376,
      "Ġfield": 3377,
      "atul": 3378,
      "ana": 3379,
      "aned": 3380,
      "annel": 3381,
      "Ġgar": 3382,
      "Ġpure": 3383,
      "Ġoce": 3384,
      "Ġheat": 3385,
      "Ġlar": 3386,
      "Ġlow": 3387,
      "Ġlif": 3388,
      "Ġlack": 3389,
      "Ġlamp": 3390,
      "Ġlake": 3391,
      "arp": 3392,
      "itive": 3393,
      "ities": 3394,
      "enge": 3395,
      "enger": 3396,
      "Ġnut": 3397,
      "Ġnath": 3398,
      "Ġnaz": 3399,
      "âĢĮâĢĮ?": 3400,
      "idge": 3401,
      "oted": 3402,
      "Ġequ": 3403,
      "Ġeight": 3404,
      "Ġears": 3405,
      "Ġreached": 3406,
      "vering": 3407,
      "Ġform": 3408,
      "Ġforth": 3409,
      "Ġstun": 3410,
      "Ġstation": 3411,
      "Ġdozen": 3412,
      "ades": 3413,
      "adian": 3414,
      "Ġhist": 3415,
      "Ġmeat": 3416,
      "Ġmeant": 3417,
      "Ġmemb": 3418,
      "ames": 3419,
      "Ġseveral": 3420,
      "urs": 3421,
      "Ġatte": 3422,
      "Ġrul": 3423,
      "while": 3424,
      "Ġarea": 3425,
      "Ġchuck": 3426,
      "Ġchinese": 3427,
      "Ġchina": 3428,
      "Ġliked": 3429,
      "Ġdeck": 3430,
      "pper": 3431,
      "ility": 3432,
      "Ġallowed": 3433,
      "Ġknights": 3434,
      "uming": 3435,
      "Ġmaj": 3436,
      "Ġmaid": 3437,
      "Ġleans": 3438,
      "Ġtrick": 3439,
      "Ġworks": 3440,
      "Ġboat": 3441,
      "Ġcoach": 3442,
      "Ġcoins": 3443,
      "Ġalcoh": 3444,
      "Ġconside": 3445,
      "Ġspr": 3446,
      "Ġspell": 3447,
      "Ġspace": 3448,
      "ulation": 3449,
      "Ġplant": 3450,
      "Ġclaim": 3451,
      "Ġwanting": 3452,
      "aren": 3453,
      "Ġtwenty": 3454,
      "Ġprove": 3455,
      "Ġseeing": 3456,
      "aged": 3457,
      "ptly": 3458,
      "Ġafternoon": 3459,
      "Ġpreacher": 3460,
      "Ġdrug": 3461,
      "Ġmoving": 3462,
      "Ġmoves": 3463,
      "Ġsmith": 3464,
      "Ġwaist": 3465,
      "Ġtech": 3466,
      "Ġteach": 3467,
      "Ġteeth": 3468,
      "orney": 3469,
      "spaper": 3470,
      "Ġcarrying": 3471,
      "Ġusing": 3472,
      "box": 3473,
      "eak": 3474,
      "eared": 3475,
      "Ġfinishes": 3476,
      "ftain": 3477,
      "Ġappre": 3478,
      "Ġapples": 3479,
      "Ġappears": 3480,
      "Ġdisg": 3481,
      "izes": 3482,
      "Ġbuk": 3483,
      "Ġbuys": 3484,
      "Ġdoctors": 3485,
      "dog": 3486,
      "Ġattorney": 3487,
      "Ġaward": 3488,
      "Ġglove": 3489,
      "Ġneeded": 3490,
      "abbed": 3491,
      "Ġdiv": 3492,
      "Ġstrugg": 3493,
      "upon": 3494,
      "Ġdesp": 3495,
      "Ġended": 3496,
      "Ġrecog": 3497,
      "Ġresponse": 3498,
      "Ġelmon": 3499,
      "!!!": 3500,
      "Ġsatan": 3501,
      "Ġmoments": 3502,
      "Ġskin": 3503,
      "Ġembarrass": 3504,
      "Ġrabbit": 3505,
      "Ġlights": 3506,
      "Ġhighway": 3507,
      "Ġinde": 3508,
      "Ġmeeting": 3509,
      "Ġsett": 3510,
      "Ġunderstood": 3511,
      "Ġbroken": 3512,
      "Ġcareer": 3513,
      "Ġdollar": 3514,
      "Ġcere": 3515,
      "Ġcemeter": 3516,
      "Ġscreamed": 3517,
      "Ġamaze": 3518,
      "Ġraise": 3519,
      "Ġcondom": 3520,
      "ologist": 3521,
      "Ġnearly": 3522,
      "umbles": 3523,
      "Ġflying": 3524,
      "Ġpromise": 3525,
      "Ġpromptly": 3526,
      "Ġsleeping": 3527,
      "Ġjudge": 3528,
      "Ġlimits": 3529,
      "Ġsteps": 3530,
      "Ġiceberg": 3531,
      "Ġupvote": 3532,
      "Ġitaly": 3533,
      "Ġconsider": 3534,
      "Ġperfectly": 3535,
      "Ġcustomer": 3536,
      "Ġsweet": 3537,
      "Ġfrenchman": 3538,
      "Ġpatr": 3539,
      "Ġbaseball": 3540,
      "Ġscared": 3541,
      "Ġbatman": 3542,
      "Ġmeasure": 3543,
      "Ġrushed": 3544,
      "Ġafford": 3545,
      "Ġgym": 3546,
      "Ġinformation": 3547,
      "Ġviol": 3548,
      "Ġaccidentally": 3549,
      "finitely": 3550,
      "Ġsandwich": 3551,
      "Ġmistake": 3552,
      "genie": 3553,
      "Ġcorner": 3554,
      "Ġlibrary": 3555,
      "Ġfruit": 3556,
      "Ġchallenge": 3557,
      "Ġofficial": 3558,
      "Ġcirc": 3559,
      "Ġcertain": 3560,
      "Ġpanties": 3561,
      "Ġcruise": 3562,
      "Ġsimple": 3563,
      "Ġhouses": 3564,
      "Ġdavid": 3565,
      "Ġugly": 3566,
      "Ġlifeboats": 3567,
      "Ġpikach": 3568,
      "Ġcongregation": 3569,
      "Ġnathan": 3570,
      "Ġmembers": 3571,
      "Ġattempt": 3572,
      "Ġconsidered": 3573,
      "Ġrecogn": 3574,
      "Ġcemetery": 3575,
      "!?\"": 3576,
      "'.": 3577,
      "66": 3578,
      "ael": 3579,
      "bartender": 3580,
      "cri": 3581,
      "cess": 3582,
      "cony": 3583,
      "da": 3584,
      "damn": 3585,
      "em": 3586,
      "ees": 3587,
      "fun": 3588,
      "gth": 3589,
      "hur": 3590,
      "hist": 3591,
      "hole": 3592,
      "ipp": 3593,
      "iest": 3594,
      "ium": 3595,
      "mar": 3596,
      "mly": 3597,
      "nis": 3598,
      "och": 3599,
      "oint": 3600,
      "range": 3601,
      "si": 3602,
      "su": 3603,
      "Â£": 3604,
      "Ġ/": 3605,
      "Ġtick": 3606,
      "Ġtits": 3607,
      "Ġtatt": 3608,
      "Ġtiger": 3609,
      "Ġali": 3610,
      "Ġsi": 3611,
      "Ġsens": 3612,
      "ining": 3613,
      "ince": 3614,
      "oub": 3615,
      "oured": 3616,
      "rel": 3617,
      "Ġband": 3618,
      "Ġbright": 3619,
      "Ġbible": 3620,
      "Ġbike": 3621,
      "Ġbulb": 3622,
      "Ġmich": 3623,
      "erly": 3624,
      "only": 3625,
      "Ġhom": 3626,
      "Ġhook": 3627,
      "Ġdeter": 3628,
      "Ġcas": 3629,
      "Ġcried": 3630,
      "Ġcream": 3631,
      "Ġcult": 3632,
      "athe": 3633,
      "attered": 3634,
      "anish": 3635,
      "ansp": 3636,
      "Ġgif": 3637,
      "Ġgate": 3638,
      "Ġgather": 3639,
      "Ġpays": 3640,
      "Ġport": 3641,
      "Ġpage": 3642,
      "Ġpiss": 3643,
      "Ġpsy": 3644,
      "lla": 3645,
      "Ġye": 3646,
      "Ġhero": 3647,
      "Ġled": 3648,
      "Ġlas": 3649,
      "Ġlines": 3650,
      "ites": 3651,
      "itual": 3652,
      "itude": 3653,
      "enly": 3654,
      "Ġthi": 3655,
      "Ġinch": 3656,
      "Ġincl": 3657,
      "omb": 3658,
      "ido": 3659,
      "iding": 3660,
      "ushed": 3661,
      "Ġbeers": 3662,
      "Ġbeats": 3663,
      "ica": 3664,
      "icle": 3665,
      "Ġea": 3666,
      "Ġec": 3667,
      "Ġeld": 3668,
      "Ġevid": 3669,
      "Ġrequ": 3670,
      "Ġrent": 3671,
      "Ġreaper": 3672,
      "..âĢĮâĢĮ.": 3673,
      "Ġhallow": 3674,
      "alm": 3675,
      "Ġiss": 3676,
      "acking": 3677,
      "Ġstri": 3678,
      "Ġstew": 3679,
      "Ġstaring": 3680,
      "rigu": 3681,
      "keeper": 3682,
      "Ġassh": 3683,
      "ster": 3684,
      "Ġwashing": 3685,
      "Ġweak": 3686,
      "âĢĿ,": 3687,
      "see": 3688,
      "chie": 3689,
      "ifi": 3690,
      "Ġrat": 3691,
      "Ġrace": 3692,
      "anding": 3693,
      "lier": 3694,
      "une": 3695,
      "Ġchoc": 3696,
      "Ġchamp": 3697,
      "Ġchance": 3698,
      "Ġchannel": 3699,
      "Ġdefinitely": 3700,
      "iling": 3701,
      "ested": 3702,
      "Ġsund": 3703,
      "Ġsugg": 3704,
      "ums": 3705,
      "Ġguine": 3706,
      "Ġwhenever": 3707,
      "Ġtransp": 3708,
      "Ġworse": 3709,
      "Ġworth": 3710,
      "istr": 3711,
      "Ġpointing": 3712,
      "essed": 3713,
      "Ġtax": 3714,
      "igr": 3715,
      "Ġsport": 3716,
      "Ġspider": 3717,
      "Ġsperm": 3718,
      "ishing": 3719,
      "ishment": 3720,
      "raged": 3721,
      "ulous": 3722,
      "Ġarrange": 3723,
      "Ġorang": 3724,
      "Ġque": 3725,
      "Ġquar": 3726,
      "itted": 3727,
      "Ġprov": 3728,
      "Ġgrowing": 3729,
      "Ġamong": 3730,
      "Ġblame": 3731,
      "Ġbarn": 3732,
      "Ġprefer": 3733,
      "Ġprot": 3734,
      "Ġproud": 3735,
      "Ġmoved": 3736,
      "Ġnewspaper": 3737,
      "noby": 3738,
      "Ġsexual": 3739,
      "Ġcars": 3740,
      "Ġusual": 3741,
      "bered": 3742,
      "people": 3743,
      "Ġgreen": 3744,
      "Ġgreet": 3745,
      "Ġdrives": 3746,
      "rength": 3747,
      "Ġbubb": 3748,
      "ffic": 3749,
      "Ġcafe": 3750,
      "sheriff": 3751,
      "Ġattila": 3752,
      "Ġchem": 3753,
      "Ġcheating": 3754,
      "Ġcheap": 3755,
      "Ġcrim": 3756,
      "Ġswing": 3757,
      "Ġparis": 3758,
      "Ġperfor": 3759,
      "Ġdeser": 3760,
      "Ġdesper": 3761,
      "Ġdesert": 3762,
      "Ġsupply": 3763,
      "nec": 3764,
      "never": 3765,
      "Ġpartic": 3766,
      "Ġcontract": 3767,
      "ruction": 3768,
      "Ġlonger": 3769,
      "Ġentered": 3770,
      "Ġdrop": 3771,
      "Ġposted": 3772,
      "!!!\"": 3773,
      "Ġkilling": 3774,
      "Ġclever": 3775,
      "Ġpengu": 3776,
      "Ġphys": 3777,
      "overed": 3778,
      "Ġhorri": 3779,
      "Ġconfident": 3780,
      "Ġactiv": 3781,
      "Ġfuneral": 3782,
      "Ġredditors": 3783,
      "Ġquestions": 3784,
      "Ġproblems": 3785,
      "Ġcollect": 3786,
      "Ġwinner": 3787,
      "Ġinterp": 3788,
      "Ġblowing": 3789,
      "iva": 3790,
      "ivor": 3791,
      "Ġpauses": 3792,
      "ffect": 3793,
      "Ġpopular": 3794,
      "Ġscreams": 3795,
      "Ġsounds": 3796,
      "happy": 3797,
      "Ġsteve": 3798,
      "Ġimpressed": 3799,
      "Ġriver": 3800,
      "Ġapproached": 3801,
      "Ġpenises": 3802,
      "Ġsinging": 3803,
      "Ġfigured": 3804,
      "Ġintrigu": 3805,
      "Ġdinos": 3806,
      "Ġcowboy": 3807,
      "Ġelection": 3808,
      "Ġcondition": 3809,
      "Ġarrived": 3810,
      "Ġfactory": 3811,
      "Ġglasses": 3812,
      "Ġfalls": 3813,
      "Ġsecretary": 3814,
      "Ġstrangers": 3815,
      "Ġtreat": 3816,
      "Ġtrees": 3817,
      "Ġannivers": 3818,
      "Ġcolor": 3819,
      "Ġadmir": 3820,
      "Ġcontinues": 3821,
      "Ġexclaims": 3822,
      "Ġbowl": 3823,
      "Ġchanges": 3824,
      "Ġobviously": 3825,
      "Ġresults": 3826,
      "Ġrolls": 3827,
      "Ġgrill": 3828,
      "Ġpiece": 3829,
      "imply": 3830,
      "without": 3831,
      "Ġburned": 3832,
      "Ġnurses": 3833,
      "Ġswimming": 3834,
      "Ġslaps": 3835,
      "Ġesca": 3836,
      "Ġwoods": 3837,
      "Ġinsist": 3838,
      "welshman": 3839,
      "Ġbuddhist": 3840,
      "everyone": 3841,
      "Ġgynec": 3842,
      "Ġcomments": 3843,
      "Ġsatisfied": 3844,
      "Ġsandwiches": 3845,
      "Ġchief": 3846,
      "Ġchieftain": 3847,
      "Ġdisappoint": 3848,
      "Ġbecoming": 3849,
      "Ġbecomes": 3850,
      "Ġlogically": 3851,
      "Ġfurther": 3852,
      "Ġknocks": 3853,
      "Ġproceeds": 3854,
      "Ġaustralian": 3855,
      "Ġbench": 3856,
      "Ġfilled": 3857,
      "Ġsearch": 3858,
      "Ġwonderful": 3859,
      "Ġchernoby": 3860,
      "Ġnicke": 3861,
      "Ġbakery": 3862,
      "Ġdebate": 3863,
      "Ġprotester": 3864,
      "Ġvirgin": 3865,
      "Ġlanguage": 3866,
      "fortunately": 3867,
      "Ġavoid": 3868,
      "Ġbalcony": 3869,
      "Ġocean": 3870,
      "Ġhistory": 3871,
      "Ġappreci": 3872,
      "Ġdivor": 3873,
      "Ġamazement": 3874,
      "Ġpikachu": 3875,
      "ochist": 3876,
      "Ġtattoo": 3877,
      "Ġmichael": 3878,
      "Ġelderly": 3879,
      "Ġevidence": 3880,
      "Ġhalloween": 3881,
      "Ġasshole": 3882,
      "Ġoranges": 3883,
      "Ġbubbles": 3884,
      "Ġintrigued": 3885,
      "Ġanniversary": 3886,
      "Ġchernobyl": 3887,
      "!)": 3888,
      ".)": 3889,
      ".âĢĮâĢĮ\"": 3890,
      "/**[**": 3891,
      "18": 3892,
      "250": 3893,
      "bat": 3894,
      "bit": 3895,
      "bsp": 3896,
      "cher": 3897,
      "cra": 3898,
      "ec": 3899,
      "ech": 3900,
      "fly": 3901,
      "first": 3902,
      "fied": 3903,
      "hat": 3904,
      "him": 3905,
      "iod": 3906,
      "ientist": 3907,
      "ker": 3908,
      "len": 3909,
      "mel": 3910,
      "moral": 3911,
      "nbsp": 3912,
      "oss": 3913,
      "pes": 3914,
      "par": 3915,
      "rom": 3916,
      "rough": 3917,
      "rated": 3918,
      "sed": 3919,
      "somet": 3920,
      "sudd": 3921,
      "turn": 3922,
      "take": 3923,
      "uary": 3924,
      "vin": 3925,
      "vax": 3926,
      "wr": 3927,
      "was": 3928,
      "Ġou": 3929,
      "Ġtv": 3930,
      "Ġtables": 3931,
      "Ġaud": 3932,
      "Ġsar": 3933,
      "Ġsne": 3934,
      "Ġslight": 3935,
      "Ġsimply": 3936,
      "inated": 3937,
      "Ġwand": 3938,
      "Ġwoke": 3939,
      "Ġwished": 3940,
      "Ġwives": 3941,
      "Ġwanna": 3942,
      "Ġwifi": 3943,
      "oul": 3944,
      "rella": 3945,
      "Ġba": 3946,
      "Ġbi": 3947,
      "Ġban": 3948,
      "Ġbay": 3949,
      "Ġbac": 3950,
      "Ġbun": 3951,
      "Ġbum": 3952,
      "Ġbast": 3953,
      "Ġbah": 3954,
      "Ġbatt": 3955,
      "Ġmor": 3956,
      "Ġmix": 3957,
      "Ġmult": 3958,
      "Ġmention": 3959,
      "Ġmoral": 3960,
      "erk": 3961,
      "oned": 3962,
      "Ġdut": 3963,
      "Ġdry": 3964,
      "Ġdung": 3965,
      "Ġdoub": 3966,
      "Ġcoo": 3967,
      "Ġcats": 3968,
      "Ġcries": 3969,
      "Ġfif": 3970,
      "Ġfant": 3971,
      "Ġfart": 3972,
      "Ġfear": 3973,
      "Ġfool": 3974,
      "Ġfancy": 3975,
      "atin": 3976,
      "atur": 3977,
      "anced": 3978,
      "Ġge": 3979,
      "Ġgig": 3980,
      "Ġgathe": 3981,
      "orter": 3982,
      "Ġpor": 3983,
      "Ġpand": 3984,
      "Ġpour": 3985,
      "Ġpile": 3986,
      "Ġya": 3987,
      "Ġow": 3988,
      "Ġostr": 3989,
      "Ġlun": 3990,
      "Ġlab": 3991,
      "Ġthro": 3992,
      "asel": 3993,
      "Ġnet": 3994,
      "Ġnatur": 3995,
      "Ġinfinite": 3996,
      "omin": 3997,
      "lect": 3998,
      "ota": 3999,
      "usion": 4000,
      "ushing": 4001,
      "Ġet": 4002,
      "Ġeu": 4003,
      "Ġev": 4004,
      "Ġones": 4005,
      "Ġrelie": 4006,
      "Ġhal": 4007,
      "Ġhall": 4008,
      "Ġhaird": 4009,
      "alk": 4010,
      "alified": 4011,
      "these": 4012,
      "acc": 4013,
      "acked": 4014,
      "aching": 4015,
      "Ġstom": 4016,
      "Ġstro": 4017,
      "Ġstrength": 4018,
      "Ġdoc": 4019,
      "rily": 4020,
      "ribut": 4021,
      "kend": 4022,
      "Ġur": 4023,
      "Ġumb": 4024,
      "add": 4025,
      "ading": 4026,
      "rop": 4027,
      "Ġmex": 4028,
      "Ġmech": 4029,
      "Ġweasel": 4030,
      "Ġself": 4031,
      "Ġsaus": 4032,
      "Ġsaving": 4033,
      "chair": 4034,
      "ury": 4035,
      "Ġrad": 4036,
      "Ġriddle": 4037,
      "Ġritual": 4038,
      "ops": 4039,
      "lip": 4040,
      "Ġyours": 4041,
      "Ġdevel": 4042,
      "Ġnotes": 4043,
      "ument": 4044,
      "abet": 4045,
      "Ġtru": 4046,
      "Ġtrust": 4047,
      "Ġtrouble": 4048,
      "Ġbooth": 4049,
      "Ġrepe": 4050,
      "Ġrepub": 4051,
      "Ġcoll": 4052,
      "Ġoffers": 4053,
      "Ġoffensive": 4054,
      "Ġlock": 4055,
      "Ġlosing": 4056,
      "Ġconvert": 4057,
      "Ġconcer": 4058,
      "Ġnoise": 4059,
      "Ġnoises": 4060,
      "Ġspoken": 4061,
      "Ġbackwards": 4062,
      "Ġplates": 4063,
      "Ġroy": 4064,
      "Ġrock": 4065,
      "Ġval": 4066,
      "Ġgotta": 4067,
      "ittl": 4068,
      "Ġprod": 4069,
      "Ġgrow": 4070,
      "Ġgrabbed": 4071,
      "Ġ13": 4072,
      "Ġ14": 4073,
      "orted": 4074,
      "Ġbars": 4075,
      "Ġbarber": 4076,
      "Ġweren": 4077,
      "Ġpea": 4078,
      "Ġpee": 4079,
      "Ġnowhere": 4080,
      "Ġstarting": 4081,
      "Ġdrank": 4082,
      "Ġdrugs": 4083,
      "Ġprinc": 4084,
      "Ġsmoking": 4085,
      "mean": 4086,
      "Ġsons": 4087,
      "Ġwake": 4088,
      "Ġdoorbell": 4089,
      "Ġsexy": 4090,
      "spe": 4091,
      "Ġcarried": 4092,
      "Ġusually": 4093,
      "Ġ25": 4094,
      "Ġscience": 4095,
      "Ġscientist": 4096,
      "ments": 4097,
      "resser": 4098,
      "Ġdrivers": 4099,
      "Ġappeared": 4100,
      "Ġimm": 4101,
      "Ġimpe": 4102,
      "Ġcause": 4103,
      "teacher": 4104,
      "Ġunderwear": 4105,
      "Ġslams": 4106,
      "Ġmarine": 4107,
      "Ġmarry": 4108,
      "Ġmarriage": 4109,
      "shut": 4110,
      "ships": 4111,
      "gged": 4112,
      "Ġadop": 4113,
      "Ġcheated": 4114,
      "Ġchecks": 4115,
      "Ġ500": 4116,
      "Ġgodfather": 4117,
      "Ġbusy": 4118,
      "Ġweekend": 4119,
      "Ġperiod": 4120,
      "Ġdiving": 4121,
      "Ġsometimes": 4122,
      "......": 4123,
      "joke": 4124,
      "oster": 4125,
      "Ġ60": 4126,
      "Ġsupplies": 4127,
      "Ġgiant": 4128,
      "Ġkidding": 4129,
      "Ġcomparing": 4130,
      "Ġexplore": 4131,
      "Ġordered": 4132,
      "stem": 4133,
      "Ġdiffic": 4134,
      "Ġcleared": 4135,
      "Ġski": 4136,
      "Ġemplo": 4137,
      "Ġassume": 4138,
      "Ġ70": 4139,
      "Ġfeels": 4140,
      "Ġgrandp": 4141,
      "Ġbrothers": 4142,
      "Ġpaying": 4143,
      "Ġclassroom": 4144,
      "Ġ202": 4145,
      "Ġmeets": 4146,
      "Ġbrings": 4147,
      "Ġbillion": 4148,
      "Ġcorrupt": 4149,
      "Ġsubject": 4150,
      "Ġtesticles": 4151,
      "Ġspeed": 4152,
      "Ġ80": 4153,
      "Ġmailbox": 4154,
      "Ġtennis": 4155,
      "Ġafric": 4156,
      "Ġdragon": 4157,
      "Ġlandl": 4158,
      "haps": 4159,
      "Ġadded": 4160,
      "Ġhitler": 4161,
      "Ġstepped": 4162,
      "Ġshopping": 4163,
      "Ġcabin": 4164,
      "Ġreasons": 4165,
      "Ġcosts": 4166,
      "great": 4167,
      "Ġcentiped": 4168,
      "Ġlearning": 4169,
      "Ġfalling": 4170,
      "Ġcharac": 4171,
      "ularly": 4172,
      "Ġstorm": 4173,
      "Ġobama": 4174,
      "Ġdemands": 4175,
      "Ġmovies": 4176,
      "Ġsadly": 4177,
      "Ġsadist": 4178,
      "Ġcalc": 4179,
      "Ġlistening": 4180,
      "Ġcustomers": 4181,
      "Ġsystem": 4182,
      "Ġpuff": 4183,
      "Ġangrily": 4184,
      "uana": 4185,
      "Ġtraining": 4186,
      "Ġslapped": 4187,
      "Ġscare": 4188,
      "Ġincred": 4189,
      "Ġrushes": 4190,
      "Ġmosque": 4191,
      "Ġaffair": 4192,
      "Ġinformed": 4193,
      "Ġreceived": 4194,
      "Ġenjoying": 4195,
      "conomy": 4196,
      "Ġlaid": 4197,
      "ammer": 4198,
      "Ġcompliment": 4199,
      "Ġinteresting": 4200,
      "zzled": 4201,
      "Ġholiday": 4202,
      "Ġsailor": 4203,
      "Ġspotted": 4204,
      "johnny": 4205,
      "Ġtrophy": 4206,
      "Ġmasturbate": 4207,
      "**[**/": 4208,
      "Ġfaith": 4209,
      "Ġforgotten": 4210,
      "Ġannoyed": 4211,
      "Ġcontrol": 4212,
      "Ġclearly": 4213,
      "Ġoperation": 4214,
      "Ġanimals": 4215,
      "Ġpleasant": 4216,
      "Ġelectric": 4217,
      "Ġmasochist": 4218,
      "Ġfetish": 4219,
      "satan": 4220,
      "Ġstatue": 4221,
      "Ġmansion": 4222,
      "Ġoriginal": 4223,
      "Ġinvestig": 4224,
      "Ġnormal": 4225,
      "Ġtonight": 4226,
      "Ġwedding": 4227,
      "Ġmartin": 4228,
      "Ġhigher": 4229,
      "Ġcigare": 4230,
      "Ġstunned": 4231,
      "Ġalcohol": 4232,
      "Ġtechn": 4233,
      "Ġdisgust": 4234,
      "Ġembarrassed": 4235,
      "Ġdeterm": 4236,
      "Ġpsych": 4237,
      "Ġchocol": 4238,
      "Ġsunday": 4239,
      "Ġprovide": 4240,
      "Ġdinosaur": 4241,
      "Ġadmiral": 4242,
      "suddenly": 4243,
      "Ġgathered": 4244,
      "Ġostrich": 4245,
      "Ġthroat": 4246,
      "Ġhairdresser": 4247,
      "Ġumbrella": 4248,
      "Ġrepublic": 4249,
      "Ġdifficult": 4250,
      "!!\"": 4251,
      "13": 4252,
      "1000": 4253,
      "24": 4254,
      "35": 4255,
      "40": 4256,
      "45": 4257,
      "67": 4258,
      "73": 4259,
      "800": 4260,
      "95": 4261,
      ":*": 4262,
      "ba": 4263,
      "bab": 4264,
      "book": 4265,
      "call": 4266,
      "cour": 4267,
      "dark": 4268,
      "fli": 4269,
      "fia": 4270,
      "gan": 4271,
      "gian": 4272,
      "ham": 4273,
      "home": 4274,
      "ii": 4275,
      "lif": 4276,
      "little": 4277,
      "mind": 4278,
      "miss": 4279,
      "nown": 4280,
      "oll": 4281,
      "oes": 4282,
      "oked": 4283,
      "pher": 4284,
      "pital": 4285,
      "rd": 4286,
      "ser": 4287,
      "sch": 4288,
      "since": 4289,
      "ught": 4290,
      "vis": 4291,
      "vian": 4292,
      "vious": 4293,
      "yan": 4294,
      "yle": 4295,
      "Ġze": 4296,
      "Ġ!<": 4297,
      "Ġtent": 4298,
      "Ġtip": 4299,
      "helen": 4300,
      "Ġain": 4301,
      "Ġaim": 4302,
      "Ġsom": 4303,
      "inic": 4304,
      "instein": 4305,
      "Ġwre": 4306,
      "Ġways": 4307,
      "rem": 4308,
      "reter": 4309,
      "Ġbask": 4310,
      "Ġment": 4311,
      "Ġmond": 4312,
      "Ġmoose": 4313,
      "nding": 4314,
      "erally": 4315,
      "onian": 4316,
      "Ġhind": 4317,
      "Ġhorn": 4318,
      "Ġcu": 4319,
      "Ġcast": 4320,
      "Ġcuri": 4321,
      "Ġcurious": 4322,
      "Ġcredit": 4323,
      "Ġfed": 4324,
      "Ġfac": 4325,
      "Ġfate": 4326,
      "Ġfurn": 4327,
      "Ġfurious": 4328,
      "anes": 4329,
      "Ġtooth": 4330,
      "Ġtowel": 4331,
      "ories": 4332,
      "Ġpur": 4333,
      "Ġpill": 4334,
      "Ġpian": 4335,
      "Ġpra": 4336,
      "Ġpath": 4337,
      "lling": 4338,
      "esome": 4339,
      "esbian": 4340,
      "isn": 4341,
      "iser": 4342,
      "Ġoil": 4343,
      "Ġhes": 4344,
      "Ġlic": 4345,
      "Ġlick": 4346,
      "Ġlbs": 4347,
      "Ġlamb": 4348,
      "arks": 4349,
      "itoes": 4350,
      "enn": 4351,
      "Ġthous": 4352,
      "asm": 4353,
      "asing": 4354,
      "ashes": 4355,
      "Ġnin": 4356,
      "Ġnum": 4357,
      "Ġnine": 4358,
      "Ġnud": 4359,
      "Ġnude": 4360,
      "Ġnature": 4361,
      "Ġnavy": 4362,
      "Ġinno": 4363,
      "lew": 4364,
      "idote": 4365,
      "ushes": 4366,
      "Ġbeam": 4367,
      "Ġbears": 4368,
      "icy": 4369,
      "Ġeffect": 4370,
      "Ġrese": 4371,
      "Ġreub": 4372,
      "Ġresol": 4373,
      "Ġitch": 4374,
      "etines": 4375,
      "Ġhav": 4376,
      "Ġhamm": 4377,
      "Ġisl": 4378,
      "acist": 4379,
      "utter": 4380,
      "Ġstage": 4381,
      "Ġstool": 4382,
      "Ġstamp": 4383,
      "Ġstock": 4384,
      "Ġstole": 4385,
      "Ġstacy": 4386,
      "Ġsteak": 4387,
      "ghan": 4388,
      "ghter": 4389,
      "Ġju": 4390,
      "Ġuh": 4391,
      "stop": 4392,
      "amaz": 4393,
      "Ġkaren": 4394,
      "sep": 4395,
      "Ġsav": 4396,
      "throw": 4397,
      "through": 4398,
      "Ġsheriff": 4399,
      "Ġshepher": 4400,
      "urit": 4401,
      "Ġsocial": 4402,
      "Ġshall": 4403,
      "Ġshook": 4404,
      "Ġshru": 4405,
      "Ġsharp": 4406,
      "Ġrom": 4407,
      "Ġrow": 4408,
      "Ġrand": 4409,
      "Ġride": 4410,
      "Ġrush": 4411,
      "Ġbutter": 4412,
      "illing": 4413,
      "lied": 4414,
      "elled": 4415,
      "antic": 4416,
      "aine": 4417,
      "Ġchat": 4418,
      "Ġchamb": 4419,
      "Ġchili": 4420,
      "Ġlikes": 4421,
      "ilt": 4422,
      "Ġfriday": 4423,
      "Ġmafia": 4424,
      "Ġguard": 4425,
      "Ġguido": 4426,
      "Ġjoin": 4427,
      "Ġjoking": 4428,
      "Ġjosep": 4429,
      "Ġleaned": 4430,
      "quitoes": 4431,
      "Ġtraged": 4432,
      "Ġcoat": 4433,
      "Ġcoke": 4434,
      "Ġagree": 4435,
      "asty": 4436,
      "Ġtape": 4437,
      "Ġhadn": 4438,
      "Ġknown": 4439,
      "Ġconfe": 4440,
      "Ġconvent": 4441,
      "Ġnod": 4442,
      "Ġspots": 4443,
      "Ġspanish": 4444,
      "Ġlikely": 4445,
      "Ġplaced": 4446,
      "Ġplatin": 4447,
      "Ġclock": 4448,
      "Ġcloud": 4449,
      "Ġcliff": 4450,
      "Ġclinic": 4451,
      "Ġrobe": 4452,
      "Ġroof": 4453,
      "Ġview": 4454,
      "Ġgotten": 4455,
      "Ġeveryday": 4456,
      "Ġdownv": 4457,
      "Ġtwin": 4458,
      "Ġtwist": 4459,
      "Ġtwins": 4460,
      "Ġwilling": 4461,
      "Ġgrins": 4462,
      "Ġamb": 4463,
      "Ġsomehow": 4464,
      "ationship": 4465,
      "Ġ11": 4466,
      "Ġ19": 4467,
      "ortant": 4468,
      "Ġbarb": 4469,
      "Ġbarack": 4470,
      "Ġenvel": 4471,
      "Ġenraged": 4472,
      "Ġbrain": 4473,
      "Ġbride": 4474,
      "Ġprote": 4475,
      "Ġunable": 4476,
      "Ġunivers": 4477,
      "Ġunfortunately": 4478,
      "pleas": 4479,
      "Ġcarp": 4480,
      "Ġhandle": 4481,
      "Ġscout": 4482,
      "Ġscots": 4483,
      "Ġfinest": 4484,
      "Ġfinanc": 4485,
      "Ġappear": 4486,
      "Ġdishes": 4487,
      "Ġdisplay": 4488,
      "Ġkeys": 4489,
      "Ġhobo": 4490,
      "Ġthrow": 4491,
      "Ġturning": 4492,
      "Ġflash": 4493,
      "Ġflush": 4494,
      "Ġputting": 4495,
      "aws": 4496,
      "door": 4497,
      "Ġwaited": 4498,
      "Ġsurr": 4499,
      "Ġ51": 4500,
      "max": 4501,
      "Ġcrit": 4502,
      "Ġswed": 4503,
      "Ġbigger": 4504,
      "Ġyounger": 4505,
      "Ġperisc": 4506,
      "Ġperhaps": 4507,
      "Ġpolite": 4508,
      "Ġdived": 4509,
      "upied": 4510,
      "Ġdesign": 4511,
      "Ġjohnson": 4512,
      "Ġlovely": 4513,
      "Ġgreatest": 4514,
      "Ġearn": 4515,
      "Ġearlier": 4516,
      "joe": 4517,
      "jobs": 4518,
      "Ġsupposed": 4519,
      "Ġ96": 4520,
      "ney": 4521,
      "Ġposts": 4522,
      "Ġhardships": 4523,
      "steve": 4524,
      "Ġveh": 4525,
      "Ġremained": 4526,
      "lesson": 4527,
      "Ġemer": 4528,
      "Ġrealizes": 4529,
      "Ġpharm": 4530,
      "Ġhorses": 4531,
      "Ġconfess": 4532,
      "Ġplayer": 4533,
      "Ġplayed": 4534,
      "Ġiron": 4535,
      "Ġirish": 4536,
      "Ġremem": 4537,
      "Ġsmaller": 4538,
      "Ġindust": 4539,
      "Ġinterrupt": 4540,
      "Ġwatermel": 4541,
      "Ġcounting": 4542,
      "Ġsalad": 4543,
      "Ġsaliva": 4544,
      "Ġsilence": 4545,
      "Ġpointed": 4546,
      "Ġvisited": 4547,
      "Ġtries": 4548,
      "Ġspect": 4549,
      "Ġspeech": 4550,
      "Ġtouches": 4551,
      "Ġafghan": 4552,
      "Ġchristians": 4553,
      "Ġdiscover": 4554,
      "Ġsteal": 4555,
      "Ġclosed": 4556,
      "Ġimportant": 4557,
      "Ġnorthern": 4558,
      "Ġapproach": 4559,
      "Ġhung": 4560,
      "Ġintro": 4561,
      "Ġsending": 4562,
      "Ġnames": 4563,
      "Ġarrive": 4564,
      "Ġprofit": 4565,
      "Ġprofile": 4566,
      "Ġsquare": 4567,
      "Ġsquire": 4568,
      "Ġcraw": 4569,
      "Ġlegal": 4570,
      "Ġcentral": 4571,
      "Ġsoldie": 4572,
      "Ġlearn": 4573,
      "extern": 4574,
      "engers": 4575,
      "Ġcharges": 4576,
      "Ġmissing": 4577,
      "Ġannoun": 4578,
      "Ġadmin": 4579,
      "Ġcontinue": 4580,
      "onym": 4581,
      "Ġrefused": 4582,
      "Ġprostitutes": 4583,
      "eez": 4584,
      "Ġbowed": 4585,
      "Ġstories": 4586,
      "Ġstorms": 4587,
      "Ġjanuary": 4588,
      "Ġmagical": 4589,
      "Ġrolled": 4590,
      "Ġpictures": 4591,
      "ported": 4592,
      "Ġfingers": 4593,
      "Ġquietly": 4594,
      "Ġantidote": 4595,
      "Ġmessage": 4596,
      "Ġpaint": 4597,
      "Ġclimb": 4598,
      "Ġclimbed": 4599,
      "Ġburning": 4600,
      "Ġpuzzled": 4601,
      "Ġbasement": 4602,
      "Ġbottle": 4603,
      "Ġadvanced": 4604,
      "horse": 4605,
      "horatio": 4606,
      "Ġbooks": 4607,
      "Ġobser": 4608,
      "Ġloudly": 4609,
      "Ġrelationship": 4610,
      "Ġmosquitoes": 4611,
      "Ġmarket": 4612,
      "Ġreceive": 4613,
      "Ġhundreds": 4614,
      "Ġmidnight": 4615,
      "Ġmassive": 4616,
      "Ġgrave": 4617,
      "Ġreposting": 4618,
      "Ġbloody": 4619,
      "from": 4620,
      "front": 4621,
      "Ġeduc": 4622,
      "Ġsailors": 4623,
      "Ġrule": 4624,
      "Ġlibrarian": 4625,
      "Ġtravel": 4626,
      "Ġpoop": 4627,
      "second": 4628,
      "Ġcanada": 4629,
      "Ġknocking": 4630,
      "Ġproceeded": 4631,
      "Ġsurvivor": 4632,
      "Ġpolitics": 4633,
      "Ġsalesgirl": 4634,
      "Ġpatients": 4635,
      "Ġaustralia": 4636,
      "Ġbanging": 4637,
      "Ġmotor": 4638,
      "Ġdanced": 4639,
      "Ġdefense": 4640,
      "Ġprepared": 4641,
      "Ġteenage": 4642,
      "Ġreaction": 4643,
      "Ġwheelchair": 4644,
      "Ġteleported": 4645,
      "Ġaccepts": 4646,
      "Ġtiny": 4647,
      "Ġcroc": 4648,
      "Ġeasily": 4649,
      "Ġreleased": 4650,
      "Ġnervously": 4651,
      "Ġcannibal": 4652,
      "congrats": 4653,
      "Ġillegally": 4654,
      "Ġaids": 4655,
      "Ġrules": 4656,
      "Ġchuckle": 4657,
      "Ġmajor": 4658,
      "Ġstruggle": 4659,
      "Ġindeed": 4660,
      "Ġpatrick": 4661,
      "Ġticket": 4662,
      "Ġalive": 4663,
      "Ġguinean": 4664,
      "istration": 4665,
      "Ġprotest": 4666,
      "Ġgreeted": 4667,
      "Ġcriminal": 4668,
      "Ġinterpreter": 4669,
      "Ġgynecologist": 4670,
      "Ġdisappointed": 4671,
      "Ġsarah": 4672,
      "Ġsnee": 4673,
      "Ġetc": 4674,
      "Ġmechanic": 4675,
      "Ġsausage": 4676,
      "Ġtruly": 4677,
      "Ġconcerned": 4678,
      "Ġprincess": 4679,
      "Ġgrandpa": 4680,
      "Ġcentipede": 4681,
      "Ġcalcetines": 4682,
      "Ġchocolate": 4683,
      "Ġrepublicans": 4684,
      "homeless": 4685,
      "Ġzeal": 4686,
      "Ġbasket": 4687,
      "Ġresear": 4688,
      "Ġreuben": 4689,
      "Ġshepherd": 4690,
      "Ġrandom": 4691,
      "Ġchambers": 4692,
      "Ġtragedy": 4693,
      "Ġplatinum": 4694,
      "Ġenvelope": 4695,
      "Ġuniversity": 4696,
      "Ġfinancial": 4697,
      "Ġperiscope": 4698,
      "external": 4699,
      "',": 4700,
      "),": 4701,
      "34": 4702,
      "61": 4703,
      "\\_": 4704,
      "aa": 4705,
      "aid": 4706,
      "aire": 4707,
      "aff": 4708,
      "bar": 4709,
      "bly": 4710,
      "best": 4711,
      "bble": 4712,
      "brew": 4713,
      "could": 4714,
      "cil": 4715,
      "case": 4716,
      "cery": 4717,
      "cabbie": 4718,
      "caine": 4719,
      "dear": 4720,
      "dium": 4721,
      "emy": 4722,
      "fs": 4723,
      "fle": 4724,
      "gb": 4725,
      "gar": 4726,
      "gree": 4727,
      "hin": 4728,
      "hit": 4729,
      "ien": 4730,
      "ially": 4731,
      "ique": 4732,
      "jac": 4733,
      "jane": 4734,
      "kin": 4735,
      "kward": 4736,
      "list": 4737,
      "lass": 4738,
      "love": 4739,
      "nope": 4740,
      "nurse": 4741,
      "oca": 4742,
      "py": 4743,
      "pay": 4744,
      "past": 4745,
      "pass": 4746,
      "rome": 4747,
      "rument": 4748,
      "sc": 4749,
      "sur": 4750,
      "tle": 4751,
      "tun": 4752,
      "til": 4753,
      "tte": 4754,
      "uce": 4755,
      "under": 4756,
      "van": 4757,
      "vest": 4758,
      "vity": 4759,
      "viet": 4760,
      "vah": 4761,
      "view": 4762,
      "wor": 4763,
      "will": 4764,
      "wers": 4765,
      "xbr": 4766,
      "yard": 4767,
      "zi": 4768,
      "Ġ!": 4769,
      "Ġ0": 4770,
      "Ġq": 4771,
      "Ġver": 4772,
      "Ġest": 4773,
      "ĠÂł": 4774,
      "Ġ....": 4775,
      "Ġtun": 4776,
      "Ġtask": 4777,
      "Ġax": 4778,
      "Ġawe": 4779,
      "Ġsigh": 4780,
      "Ġsung": 4781,
      "ino": 4782,
      "inion": 4783,
      "Ġther": 4784,
      "Ġwack": 4785,
      "Ġward": 4786,
      "Ġwra": 4787,
      "Ġwise": 4788,
      "rep": 4789,
      "really": 4790,
      "Ġbin": 4791,
      "Ġbor": 4792,
      "Ġbones": 4793,
      "Ġbored": 4794,
      "Ġmer": 4795,
      "Ġmouse": 4796,
      "Ġmike": 4797,
      "ndon": 4798,
      "ern": 4799,
      "Ġhat": 4800,
      "Ġhond": 4801,
      "Ġhated": 4802,
      "Ġhits": 4803,
      "Ġda": 4804,
      "Ġdat": 4805,
      "Ġdam": 4806,
      "Ġdust": 4807,
      "Ġdare": 4808,
      "Ġdild": 4809,
      "Ġdna": 4810,
      "Ġdys": 4811,
      "Ġdouble": 4812,
      "Ġcit": 4813,
      "Ġcand": 4814,
      "Ġcant": 4815,
      "Ġcous": 4816,
      "Ġcamp": 4817,
      "Ġfir": 4818,
      "Ġfond": 4819,
      "Ġfol": 4820,
      "Ġflew": 4821,
      "anny": 4822,
      "edian": 4823,
      "Ġgree": 4824,
      "orm": 4825,
      "Ġpatch": 4826,
      "Ġpence": 4827,
      "Ġpier": 4828,
      "Ġpush": 4829,
      "ision": 4830,
      "Ġole": 4831,
      "Ġheld": 4832,
      "Ġheavy": 4833,
      "Ġhebrew": 4834,
      "Ġlays": 4835,
      "Ġlone": 4836,
      "Ġlind": 4837,
      "Ġlaz": 4838,
      "Ġlions": 4839,
      "Ġlux": 4840,
      "Ġlittl": 4841,
      "Ġlesbian": 4842,
      "itar": 4843,
      "iture": 4844,
      "ason": 4845,
      "Ġniger": 4846,
      "Ġnasty": 4847,
      "aye": 4848,
      "idic": 4849,
      "otch": 4850,
      "Ġegy": 4851,
      "Ġeager": 4852,
      "Ġeconomy": 4853,
      "Ġeinstein": 4854,
      "ldman": 4855,
      "Ġrear": 4856,
      "Ġreach": 4857,
      "Ġrecept": 4858,
      "ety": 4859,
      "Ġhaun": 4860,
      "Ġhabit": 4861,
      "irus": 4862,
      "ality": 4863,
      "ache": 4864,
      "acle": 4865,
      "Ġformed": 4866,
      "uttered": 4867,
      "Ġstol": 4868,
      "Ġstumbles": 4869,
      "Ġjap": 4870,
      "Ġjung": 4871,
      "rie": 4872,
      "rian": 4873,
      "Ġuxbr": 4874,
      "ads": 4875,
      "adam": 4876,
      "Ġwhom": 4877,
      "Ġwhale": 4878,
      "still": 4879,
      "rope": 4880,
      "Ġmember": 4881,
      "Ġmeals": 4882,
      "amas": 4883,
      "Ġwears": 4884,
      "Ġwealth": 4885,
      "tery": 4886,
      "Ġsai": 4887,
      "Ġsaved": 4888,
      "thy": 4889,
      "though": 4890,
      "those": 4891,
      "Ġshed": 4892,
      "Ġshel": 4893,
      "urst": 4894,
      "Ġsoft": 4895,
      "Ġsoda": 4896,
      "Ġsoviet": 4897,
      "ional": 4898,
      "Ġshin": 4899,
      "Ġshore": 4900,
      "Ġshame": 4901,
      "Ġshove": 4902,
      "Ġshirt": 4903,
      "Ġnep": 4904,
      "Ġneither": 4905,
      "hersp": 4906,
      "Ġrou": 4907,
      "Ġram": 4908,
      "Ġrick": 4909,
      "Ġrather": 4910,
      "Ġrough": 4911,
      "Ġroman": 4912,
      "anded": 4913,
      "Ġbutcher": 4914,
      "wha": 4915,
      "ustrated": 4916,
      "ellig": 4917,
      "onel": 4918,
      "Ġwhether": 4919,
      "Ġdelic": 4920,
      "Ġdegree": 4921,
      "ilty": 4922,
      "ended": 4923,
      "Ġsucks": 4924,
      "Ġfrustrated": 4925,
      "Ġknees": 4926,
      "Ġmagn": 4927,
      "Ġguilty": 4928,
      "Ġjoe": 4929,
      "about": 4930,
      "Ġleather": 4931,
      "!\".": 4932,
      "qualified": 4933,
      "Ġdidnt": 4934,
      "Ġboots": 4935,
      "Ġrepres": 4936,
      "Ġreporter": 4937,
      "Ġpole": 4938,
      "Ġcover": 4939,
      "Ġcovered": 4940,
      "Ġcocaine": 4941,
      "Ġaged": 4942,
      "Ġagony": 4943,
      "Ġcomfort": 4944,
      "Ġalph": 4945,
      "Ġalthough": 4946,
      "Ġtaught": 4947,
      "Ġloved": 4948,
      "Ġlondon": 4949,
      "Ġcong": 4950,
      "Ġnose": 4951,
      "Ġwhoever": 4952,
      "ulf": 4953,
      "Ġfeather": 4954,
      "Ġfeldman": 4955,
      "Ġclint": 4956,
      "Ġarmy": 4957,
      "Ġrose": 4958,
      "Ġorph": 4959,
      "Ġvide": 4960,
      "Ġvol": 4961,
      "Ġvatic": 4962,
      "Ġvote": 4963,
      "Ġeverytime": 4964,
      "agger": 4965,
      "Ġgrace": 4966,
      "Ġsomewhat": 4967,
      "Ġanybody": 4968,
      "Ġanyway": 4969,
      "Ġovernight": 4970,
      "Ġblank": 4971,
      "Ġbloke": 4972,
      "ptic": 4973,
      "Ġ16": 4974,
      "Ġbarmaid": 4975,
      "Ġenemy": 4976,
      "Ġafterlife": 4977,
      "Ġbrand": 4978,
      "Ġbrown": 4979,
      "Ġbrick": 4980,
      "reeze": 4981,
      "Ġprec": 4982,
      "Ġpeace": 4983,
      "ileptic": 4984,
      "Ġprice": 4985,
      "Ġprices": 4986,
      "olved": 4987,
      "nobody": 4988,
      "however": 4989,
      "Ġ22": 4990,
      "bob": 4991,
      "peci": 4992,
      "Ġhomeless": 4993,
      "Ġcouch": 4994,
      "Ġmomma": 4995,
      "ohhh": 4996,
      "Ġdise": 4997,
      "izing": 4998,
      "izard": 4999,
      "Ġthrowing": 5000,
      "Ġbuilt": 5001,
      "Ġfinding": 5002,
      "yesterday": 5003,
      "Ġmonkey": 5004,
      "Ġheaded": 5005,
      "avirus": 5006,
      "Ġminnes": 5007,
      "Ġshowing": 5008,
      "osite": 5009,
      "osity": 5010,
      "Ġslap": 5011,
      "Ġmars": 5012,
      "Ġmarij": 5013,
      "Ġpassenger": 5014,
      "Ġpassengers": 5015,
      "Ġadjust": 5016,
      "Ġchee": 5017,
      "Ġchest": 5018,
      "Ġ57": 5019,
      "Ġawesome": 5020,
      "Ġawkward": 5021,
      "Ġcrash": 5022,
      "Ġswall": 5023,
      "Ġswear": 5024,
      "Ġsword": 5025,
      "Ġwrote": 5026,
      "Ġpleased": 5027,
      "Ġsurely": 5028,
      "Ġgolden": 5029,
      "Ġdescri": 5030,
      "ints": 5031,
      "Ġends": 5032,
      "Ġsuppose": 5033,
      "Ġ90": 5034,
      "Ġpriests": 5035,
      "Ġcontact": 5036,
      "Ġcontribut": 5037,
      "Ġrecover": 5038,
      "iality": 5039,
      "Ġpicking": 5040,
      "Ġrespect": 5041,
      "mony": 5042,
      "Ġcompan": 5043,
      "Ġcompet": 5044,
      "Ġenter": 5045,
      "Ġelon": 5046,
      "Ġveget": 5047,
      "forget": 5048,
      "Ġhuh": 5049,
      "Ġremove": 5050,
      "Ġsky": 5051,
      "Ġskill": 5052,
      "Ġskys": 5053,
      "Ġpencil": 5054,
      "Ġasses": 5055,
      "Ġaccom": 5056,
      "Ġaccord": 5057,
      "brother": 5058,
      "Ġredditor": 5059,
      "Ġplayers": 5060,
      "Ġterror": 5061,
      "Ġcollector": 5062,
      "Ġwinning": 5063,
      "Ġpayment": 5064,
      "tenance": 5065,
      "Ġintern": 5066,
      "Ġbillings": 5067,
      "Ġcareful": 5068,
      "Ġsalutes": 5069,
      "Ġsubst": 5070,
      "Ġceo": 5071,
      "Ġpopped": 5072,
      "Ġpopping": 5073,
      "ashion": 5074,
      "Ġinvite": 5075,
      "Ġvisits": 5076,
      "pected": 5077,
      "oda": 5078,
      "Ġtrial": 5079,
      "Ġtribe": 5080,
      "Ġballoon": 5081,
      "Ġdiscovered": 5082,
      "Ġdragging": 5083,
      "Ġfires": 5084,
      "Ġlanded": 5085,
      "Ġbegin": 5086,
      "Ġredhead": 5087,
      "Ġclothing": 5088,
      "Ġimpro": 5089,
      "Ġimpress": 5090,
      "uries": 5091,
      "onesian": 5092,
      "Ġsurprising": 5093,
      "comfort": 5094,
      "Ġintellig": 5095,
      "Ġshopkeeper": 5096,
      "Ġcowork": 5097,
      "Ġelement": 5098,
      "Ġforeman": 5099,
      "Ġnicely": 5100,
      "Ġfishing": 5101,
      "Ġinstrument": 5102,
      "Ġspeaking": 5103,
      "expected": 5104,
      "Ġshortly": 5105,
      "Ġcharizard": 5106,
      "Ġpromised": 5107,
      "Ġmission": 5108,
      "Ġcolonel": 5109,
      "going": 5110,
      "Ġplanet": 5111,
      "Ġplanning": 5112,
      "Ġrevealed": 5113,
      "Ġmedia": 5114,
      "Ġhearts": 5115,
      "Ġnuns": 5116,
      "Ġrussia": 5117,
      "Ġsuperior": 5118,
      "ground": 5119,
      "Ġbags": 5120,
      "Ġregret": 5121,
      "Ġresult": 5122,
      "Ġpregnancy": 5123,
      "Ġcommunic": 5124,
      "Ġwondered": 5125,
      "Ġwondering": 5126,
      "Ġcurrent": 5127,
      "Ġcursing": 5128,
      "Ġexpress": 5129,
      "Ġwarmed": 5130,
      "Ġfigures": 5131,
      "Ġsweat": 5132,
      "Ġtotal": 5133,
      "Ġbragging": 5134,
      "Ġmusk": 5135,
      "Ġmusic": 5136,
      "Ġkicks": 5137,
      "Ġrubber": 5138,
      "Ġexpected": 5139,
      "Ġexpecting": 5140,
      "Ġadvice": 5141,
      "Ġidiots": 5142,
      "Ġespeci": 5143,
      "Ġboobs": 5144,
      "Ġdistance": 5145,
      "Ġobsessed": 5146,
      "Ġreluct": 5147,
      "Ġpockets": 5148,
      "everything": 5149,
      "Ġbirds": 5150,
      "Ġpublic": 5151,
      "Ġopposite": 5152,
      "Ġtraffic": 5153,
      "Ġenjoy": 5154,
      "Ġenjoyed": 5155,
      "Ġsatisfy": 5156,
      "jected": 5157,
      "Ġgeneral": 5158,
      "Ġkingdoms": 5159,
      "Ġexcitedly": 5160,
      "Ġbasil": 5161,
      "Ġhoping": 5162,
      "Ġholoca": 5163,
      "Ġdiscussed": 5164,
      "Ġdiscussing": 5165,
      "Ġdesti": 5166,
      "Ġdestro": 5167,
      "Ġfreed": 5168,
      "Ġepileptic": 5169,
      "Ġchalleng": 5170,
      "Ġcanadians": 5171,
      "Ġtitle": 5172,
      "Ġtitanic": 5173,
      "Ġtimmy": 5174,
      "Ġmallard": 5175,
      "Ġgrocery": 5176,
      "Ġannoying": 5177,
      "Ġkorea": 5178,
      "Ġexperience": 5179,
      "Ġgrabs": 5180,
      "Ġbritish": 5181,
      "Ġpractice": 5182,
      "Ġswitch": 5183,
      "smoking": 5184,
      "Ġsouls": 5185,
      "Ġwildf": 5186,
      "Ġdetail": 5187,
      "Ġdetect": 5188,
      "Ġcamer": 5189,
      "Ġwelshman": 5190,
      "ificent": 5191,
      "Ġshakes": 5192,
      "Ġconstant": 5193,
      "Ġpropos": 5194,
      "Ġwatched": 5195,
      "Ġmaintenance": 5196,
      "Ġmortician": 5197,
      "Ġpanel": 5198,
      "Ġladder": 5199,
      "Ġundress": 5200,
      "Ġorgasm": 5201,
      "Ġsmells": 5202,
      "Ġcoronavirus": 5203,
      "Ġcelebrate": 5204,
      "Ġshooting": 5205,
      "hovah": 5206,
      "Ġturkey": 5207,
      "Ġmummy": 5208,
      "Ġoccupied": 5209,
      "Ġreligion": 5210,
      "Ġstudy": 5211,
      "Ġastonished": 5212,
      "Ġguests": 5213,
      "Ġsurface": 5214,
      "Ġignores": 5215,
      "Ġsuspicion": 5216,
      "billy": 5217,
      "police": 5218,
      "Ġdigging": 5219,
      "atulations": 5220,
      "Ġnazis": 5221,
      "Ġclaims": 5222,
      "Ġawarded": 5223,
      "Ġsettled": 5224,
      "Ġceremony": 5225,
      "Ġcircum": 5226,
      "marine": 5227,
      "Ġsensitive": 5228,
      "Ġecst": 5229,
      "Ġissues": 5230,
      "Ġchampion": 5231,
      "Ġsuggested": 5232,
      "Ġqueue": 5233,
      "Ġquarters": 5234,
      "Ġchemist": 5235,
      "Ġperformed": 5236,
      "Ġdeserve": 5237,
      "Ġdesperate": 5238,
      "Ġpenguin": 5239,
      "Ġhorrible": 5240,
      "Ġactivity": 5241,
      "ossible": 5242,
      "vaxx": 5243,
      "wrong": 5244,
      "Ġslightly": 5245,
      "Ġbacon": 5246,
      "Ġbuns": 5247,
      "Ġbastard": 5248,
      "Ġbattle": 5249,
      "Ġgigg": 5250,
      "Ġporch": 5251,
      "Ġeurope": 5252,
      "Ġmexican": 5253,
      "Ġemploye": 5254,
      "Ġafrican": 5255,
      "Ġlandlord": 5256,
      "ollars": 5257,
      "pitalism": 5258,
      "Ġmental": 5259,
      "Ġmonday": 5260,
      "Ġcuriosity": 5261,
      "Ġfurniture": 5262,
      "Ġpiano": 5263,
      "Ġhesit": 5264,
      "Ġlicense": 5265,
      "Ġthousands": 5266,
      "Ġhammer": 5267,
      "Ġjuice": 5268,
      "Ġshrugs": 5269,
      "Ġbutterfly": 5270,
      "Ġremembered": 5271,
      "Ġindustry": 5272,
      "Ġeducation": 5273,
      "hitler": 5274,
      "Ġdildo": 5275,
      "Ġcousin": 5276,
      "Ġfolks": 5277,
      "Ġlinda": 5278,
      "Ġlazy": 5279,
      "Ġegypt": 5280,
      "Ġreception": 5281,
      "Ġstolen": 5282,
      "Ġjungle": 5283,
      "Ġuxbridge": 5284,
      "herspoons": 5285,
      "Ġmagnificent": 5286,
      "Ġrepresent": 5287,
      "Ġclinton": 5288,
      "Ġorphan": 5289,
      "Ġvatican": 5290,
      "Ġminnesota": 5291,
      "Ġmarijuana": 5292,
      "Ġskyscra": 5293,
      "Ġintelligent": 5294,
      "Ġespecially": 5295,
      "Ġholocaust": 5296,
      "!?": 5297,
      "!âĢĮâĢĮ\"": 5298,
      ").": 5299,
      ",,": 5300,
      "14": 5301,
      "150": 5302,
      "28": 5303,
      "29": 5304,
      "32": 5305,
      "47": 5306,
      "48": 5307,
      "62": 5308,
      "78": 5309,
      "??\"": 5310,
      "?!âĢĿ": 5311,
      "aps": 5312,
      "bre": 5313,
      "bra": 5314,
      "bag": 5315,
      "cut": 5316,
      "cue": 5317,
      "des": 5318,
      "den": 5319,
      "dude": 5320,
      "eli": 5321,
      "ember": 5322,
      "event": 5323,
      "emic": 5324,
      "fa": 5325,
      "fl": 5326,
      "find": 5327,
      "four": 5328,
      "faster": 5329,
      "ga": 5330,
      "gi": 5331,
      "gay": 5332,
      "hy": 5333,
      "has": 5334,
      "had": 5335,
      "hop": 5336,
      "hich": 5337,
      "ius": 5338,
      "iant": 5339,
      "je": 5340,
      "ky": 5341,
      "kid": 5342,
      "known": 5343,
      "lot": 5344,
      "lant": 5345,
      "long": 5346,
      "min": 5347,
      "mer": 5348,
      "mother": 5349,
      "mrs": 5350,
      "nam": 5351,
      "ners": 5352,
      "oe": 5353,
      "oy": 5354,
      "pri": 5355,
      "pst": 5356,
      "poo": 5357,
      "porn": 5358,
      "person": 5359,
      "ran": 5360,
      "ris": 5361,
      "rain": 5362,
      "sl": 5363,
      "sim": 5364,
      "sad": 5365,
      "sam": 5366,
      "sca": 5367,
      "sci": 5368,
      "tf": 5369,
      "ua": 5370,
      "uch": 5371,
      "vas": 5372,
      "vir": 5373,
      "vacc": 5374,
      "wood": 5375,
      "walk": 5376,
      "xual": 5377,
      "yers": 5378,
      "years": 5379,
      "zer": 5380,
      "zed": 5381,
      "ĠâĢ": 5382,
      "ĠâĢĿ": 5383,
      "Ġvers": 5384,
      "ĠÂ£": 5385,
      "Ġ..âĢĮâĢĮ.": 5386,
      "Ġutter": 5387,
      "Ġtu": 5388,
      "Ġtes": 5389,
      "Ġtill": 5390,
      "Ġtone": 5391,
      "Ġtear": 5392,
      "Ġtamp": 5393,
      "Ġtons": 5394,
      "Ġtied": 5395,
      "Ġtues": 5396,
      "hea": 5397,
      "heart": 5398,
      "heard": 5399,
      "heme": 5400,
      "Ġah": 5401,
      "Ġairl": 5402,
      "Ġaunt": 5403,
      "Ġachie": 5404,
      "Ġsill": 5405,
      "Ġsour": 5406,
      "Ġsig": 5407,
      "Ġsven": 5408,
      "inals": 5409,
      "instead": 5410,
      "inness": 5411,
      "inmate": 5412,
      "Ġww": 5413,
      "Ġwid": 5414,
      "Ġwire": 5415,
      "Ġwip": 5416,
      "Ġwars": 5417,
      "Ġwrest": 5418,
      "reg": 5419,
      "Ġbent": 5420,
      "Ġbump": 5421,
      "Ġbased": 5422,
      "Ġbucks": 5423,
      "Ġbomb": 5424,
      "Ġmph": 5425,
      "ndor": 5426,
      "ndry": 5427,
      "eros": 5428,
      "onus": 5429,
      "Ġhire": 5430,
      "Ġhired": 5431,
      "Ġhides": 5432,
      "Ġdj": 5433,
      "Ġdim": 5434,
      "Ġdish": 5435,
      "Ġdang": 5436,
      "Ġdating": 5437,
      "Ġdance": 5438,
      "Ġcell": 5439,
      "Ġcough": 5440,
      "Ġfan": 5441,
      "Ġfist": 5442,
      "Ġfile": 5443,
      "Ġfuming": 5444,
      "Ġfashion": 5445,
      "aning": 5446,
      "anch": 5447,
      "Ġtor": 5448,
      "ingu": 5449,
      "ingly": 5450,
      "Ġgal": 5451,
      "Ġgall": 5452,
      "Ġgam": 5453,
      "Ġgong": 5454,
      "Ġgurn": 5455,
      "Ġgames": 5456,
      "oran": 5457,
      "orid": 5458,
      "orious": 5459,
      "Ġpep": 5460,
      "Ġpap": 5461,
      "Ġpoured": 5462,
      "Ġpints": 5463,
      "llar": 5464,
      "Ġyard": 5465,
      "Ġyork": 5466,
      "Ġyoda": 5467,
      "Ġol": 5468,
      "Ġheck": 5469,
      "Ġheight": 5470,
      "Ġleng": 5471,
      "Ġlower": 5472,
      "arious": 5473,
      "arling": 5474,
      "iting": 5475,
      "itary": 5476,
      "ency": 5477,
      "Ġthre": 5478,
      "Ġthick": 5479,
      "Ġthie": 5480,
      "Ġthirty": 5481,
      "asp": 5482,
      "ashing": 5483,
      "Ġness": 5484,
      "Ġnsfw": 5485,
      "Ġnoose": 5486,
      "Ġinh": 5487,
      "Ġinit": 5488,
      "Ġinse": 5489,
      "Ġinqu": 5490,
      "Ġinten": 5491,
      "Ġinsec": 5492,
      "ayer": 5493,
      "ayan": 5494,
      "lete": 5495,
      "lets": 5496,
      "ided": 5497,
      "iders": 5498,
      "idence": 5499,
      "otion": 5500,
      "otum": 5501,
      "usive": 5502,
      "Ġbelt": 5503,
      "icked": 5504,
      "icking": 5505,
      "icag": 5506,
      "icol": 5507,
      "Ġeth": 5508,
      "Ġelf": 5509,
      "Ġonl": 5510,
      "Ġreass": 5511,
      "Ġrewards": 5512,
      "Ġitself": 5513,
      "Ġhawa": 5514,
      "irts": 5515,
      "ali": 5516,
      "aled": 5517,
      "aling": 5518,
      "also": 5519,
      "alese": 5520,
      "thew": 5521,
      "acles": 5522,
      "acious": 5523,
      "Ġfortun": 5524,
      "utral": 5525,
      "Ġstays": 5526,
      "Ġstare": 5527,
      "Ġstret": 5528,
      "Ġstaff": 5529,
      "Ġstern": 5530,
      "Ġjar": 5531,
      "Ġjail": 5532,
      "Ġjama": 5533,
      "Ġjacks": 5534,
      "Ġjenn": 5535,
      "Ġjaws": 5536,
      "kept": 5537,
      "keys": 5538,
      "aded": 5539,
      "adition": 5540,
      "Ġast": 5541,
      "Ġasse": 5542,
      "Ġasian": 5543,
      "Ġaside": 5544,
      "steric": 5545,
      "stacy": 5546,
      "Ġwash": 5547,
      "Ġwaste": 5548,
      "outs": 5549,
      "Ġanonym": 5550,
      "rog": 5551,
      "ents": 5552,
      "Ġkil": 5553,
      "Ġkeros": 5554,
      "Ġseated": 5555,
      "several": 5556,
      "Ġsale": 5557,
      "Ġsaint": 5558,
      "urday": 5559,
      "Ġsob": 5560,
      "Ġsock": 5561,
      "Ġsharing": 5562,
      "Ġshade": 5563,
      "Ġshattered": 5564,
      "Ġupd": 5565,
      "Ġneutral": 5566,
      "Ġrain": 5567,
      "Ġrum": 5568,
      "Ġrate": 5569,
      "Ġrage": 5570,
      "Ġrav": 5571,
      "Ġrise": 5572,
      "Ġrings": 5573,
      "Ġrude": 5574,
      "Ġriding": 5575,
      "Ġryan": 5576,
      "Ġridic": 5577,
      "ĠâĢľ$": 5578,
      "andan": 5579,
      "which": 5580,
      "oph": 5581,
      "?\".": 5582,
      "ellent": 5583,
      "unes": 5584,
      "Ġchir": 5585,
      "Ġchose": 5586,
      "Ġchoose": 5587,
      "Ġchicag": 5588,
      "Ġlips": 5589,
      "Ġlighter": 5590,
      "Ġlipst": 5591,
      "Ġdean": 5592,
      "Ġdece": 5593,
      "Ġdeux": 5594,
      "gender": 5595,
      "Ġcancer": 5596,
      "cel": 5597,
      "esty": 5598,
      "cts": 5599,
      "Ġsuff": 5600,
      "Ġsugar": 5601,
      "orean": 5602,
      "Ġallow": 5603,
      "Ġalley": 5604,
      "Ġfridge": 5605,
      "Ġknocked": 5606,
      "umed": 5607,
      "Ġwhatever": 5608,
      "Ġmaurit": 5609,
      "Ġgull": 5610,
      "Ġguitar": 5611,
      "Ġguinness": 5612,
      "Ġaback": 5613,
      "Ġability": 5614,
      "Ġlevel": 5615,
      "Ġtrin": 5616,
      "Ġtrous": 5617,
      "Ġtrained": 5618,
      "Ġtradition": 5619,
      "istan": 5620,
      "istic": 5621,
      "istani": 5622,
      "Ġtherefore": 5623,
      "Ġpond": 5624,
      "Ġpose": 5625,
      "Ġpoison": 5626,
      "Ġcovers": 5627,
      "Ġcovering": 5628,
      "Ġcomedian": 5629,
      "Ġalb": 5630,
      "Ġalice": 5631,
      "Ġalarm": 5632,
      "Ġoffering": 5633,
      "Ġtail": 5634,
      "Ġtavern": 5635,
      "Ġlog": 5636,
      "Ġloan": 5637,
      "Ġloving": 5638,
      "Ġloves": 5639,
      "Ġloses": 5640,
      "earther": 5641,
      "Ġcongr": 5642,
      "Ġconvin": 5643,
      "Ġspir": 5644,
      "Ġspiders": 5645,
      "Ġexist": 5646,
      "Ġexha": 5647,
      "mani": 5648,
      "ulate": 5649,
      "Ġplu": 5650,
      "Ġplays": 5651,
      "Ġplug": 5652,
      "Ġplenty": 5653,
      "Ġfeature": 5654,
      "Ġloose": 5655,
      "Ġclo": 5656,
      "Ġclown": 5657,
      "Ġclick": 5658,
      "Ġclerk": 5659,
      "Ġarg": 5660,
      "Ġrocks": 5661,
      "Ġrooster": 5662,
      "Ġvac": 5663,
      "Ġvirt": 5664,
      "Ġvict": 5665,
      "assin": 5666,
      "arest": 5667,
      "Ġprovid": 5668,
      "Ġprogr": 5669,
      "Ġprocess": 5670,
      "aging": 5671,
      "agra": 5672,
      "ague": 5673,
      "Ġgray": 5674,
      "Ġgrass": 5675,
      "Ġsomebody": 5676,
      "ptember": 5677,
      "Ġ17": 5678,
      "Ġencour": 5679,
      "Ġteller": 5680,
      "Ġbrains": 5681,
      "Ġprevent": 5682,
      "Ġdrown": 5683,
      "Ġdrained": 5684,
      "Ġpride": 5685,
      "Ġprunes": 5686,
      "Ġmod": 5687,
      "Ġmoon": 5688,
      "Ġmold": 5689,
      "ola": 5690,
      "olese": 5691,
      "Ġwaved": 5692,
      "Ġwafer": 5693,
      "young": 5694,
      "auan": 5695,
      "aundry": 5696,
      "Ġtea": 5697,
      "Ġtext": 5698,
      "Ġteaching": 5699,
      "Ġunus": 5700,
      "Ġunison": 5701,
      "Ġunbelie": 5702,
      "Ġunzi": 5703,
      "Ġuncomfort": 5704,
      "Ġunexpected": 5705,
      "Ġunvacc": 5706,
      "Ġcarl": 5707,
      "Ġuses": 5708,
      "athon": 5709,
      "Ġscree": 5710,
      "Ġscott": 5711,
      "Ġmuff": 5712,
      "uced": 5713,
      "agement": 5714,
      "beers": 5715,
      "bod": 5716,
      "Ġdecor": 5717,
      "enses": 5718,
      "ension": 5719,
      "Ġgreed": 5720,
      "ples": 5721,
      "ohshit": 5722,
      "Ġapply": 5723,
      "Ġappla": 5724,
      "Ġapplied": 5725,
      "Ġkeith": 5726,
      "ization": 5727,
      "Ġbuff": 5728,
      "Ġflow": 5729,
      "Ġflock": 5730,
      "Ġcared": 5731,
      "Ġcapitalism": 5732,
      "Ġhappening": 5733,
      "Ġmonica": 5734,
      "iply": 5735,
      "avior": 5736,
      "Ġworker": 5737,
      "Ġslo": 5738,
      "Ġslim": 5739,
      "Ġslam": 5740,
      "Ġmarvel": 5741,
      "Ġbreat": 5742,
      "should": 5743,
      "Ġattitude": 5744,
      "Ġ--": 5745,
      "Ġadvert": 5746,
      "Ġchecking": 5747,
      "Ġopinion": 5748,
      "Ġaware": 5749,
      "Ġcrow": 5750,
      "Ġcrack": 5751,
      "Ġglist": 5752,
      "Ġglances": 5753,
      "Ġglorious": 5754,
      "Ġwron": 5755,
      "Ġfucks": 5756,
      "Ġparking": 5757,
      "Ġparole": 5758,
      "Ġpervert": 5759,
      "Ġpercent": 5760,
      "anky": 5761,
      "nah": 5762,
      "Ġgoldstein": 5763,
      "Ġbestiality": 5764,
      "Ġdesigned": 5765,
      "ocr": 5766,
      "ocking": 5767,
      "ĠĠĠĠĠĠ": 5768,
      "ĠĠĠĠĠĠĠĠĊ": 5769,
      "Ġbites": 5770,
      "aken": 5771,
      "Ġ92": 5772,
      "Ġ94": 5773,
      "Ġhelped": 5774,
      "Ġhelping": 5775,
      "Ġparts": 5776,
      "Ġserved": 5777,
      "Ġseriously": 5778,
      "Ġgiv": 5779,
      "Ġrecy": 5780,
      "Ġkeeping": 5781,
      "cling": 5782,
      "clock": 5783,
      "Ġcompartment": 5784,
      "Ġfarmers": 5785,
      "Ġident": 5786,
      "Ġdropping": 5787,
      "Ġpostman": 5788,
      "Ġ:)": 5789,
      "Ġhardship": 5790,
      "Ġreturning": 5791,
      "!!!âĢĿ": 5792,
      "Ġveter": 5793,
      "Ġvendor": 5794,
      "Ġsaturday": 5795,
      "lessly": 5796,
      "Ġpersonally": 5797,
      "Ġassassin": 5798,
      "Ġpolicewoman": 5799,
      "Ġaccess": 5800,
      "Ġphr": 5801,
      "iah": 5802,
      "Ġbehavior": 5803,
      "Ġmature": 5804,
      "Ġmatthew": 5805,
      "Ġhorror": 5806,
      "Ġdaughters": 5807,
      "Ġaction": 5808,
      "onsense": 5809,
      "Ġfunction": 5810,
      "Ġrestored": 5811,
      "Ġairpl": 5812,
      "Ġirrit": 5813,
      "Ġmenu": 5814,
      "phants": 5815,
      "Ġwindows": 5816,
      "prised": 5817,
      "Ġ201": 5818,
      "Ġindic": 5819,
      "Ġindia": 5820,
      "Ġcaptured": 5821,
      "ival": 5822,
      "Ġsets": 5823,
      "Ġcommander": 5824,
      "Ġbilly": 5825,
      "Ġcountries": 5826,
      "Ġenglis": 5827,
      "Ġengland": 5828,
      "Ġcarefully": 5829,
      "Ġfamous": 5830,
      "Ġfamili": 5831,
      "Ġfacebook": 5832,
      "Ġcorp": 5833,
      "Ġsubreddit": 5834,
      "Ġpopulation": 5835,
      "Ġinvites": 5836,
      "Ġinvolved": 5837,
      "Ġvision": 5838,
      "odile": 5839,
      "Ġsounded": 5840,
      "Ġballoons": 5841,
      "Ġtownspe": 5842,
      "Ġeyesight": 5843,
      "Ġmailing": 5844,
      "Ġstaying": 5845,
      "Ġraises": 5846,
      "Ġwalls": 5847,
      "Ġwallet": 5848,
      "Ġredne": 5849,
      "Ġsteel": 5850,
      "Ġcloses": 5851,
      "Ġimpossible": 5852,
      "Ġrip": 5853,
      "Ġbodygu": 5854,
      "Ġfroze": 5855,
      "Ġunderstanding": 5856,
      "Ġdiner": 5857,
      "Ġelephants": 5858,
      "Ġjacket": 5859,
      "Ġcostume": 5860,
      "ological": 5861,
      "ologists": 5862,
      "Ġsquir": 5863,
      "Ġcrap": 5864,
      "Ġforever": 5865,
      "atti": 5866,
      "umbled": 5867,
      "Ġlocals": 5868,
      "Ġ**Â£": 5869,
      "Ġcenter": 5870,
      "Ġcenturies": 5871,
      "Ġinstru": 5872,
      "Ġsandra": 5873,
      "Ġspeaks": 5874,
      "Ġengineers": 5875,
      "Ġengineering": 5876,
      "Ġluckily": 5877,
      "Ġnickname": 5878,
      "Ġcharity": 5879,
      "Ġdriveway": 5880,
      "Ġ&#": 5881,
      "Ġsleeps": 5882,
      "Ġbleeding": 5883,
      "Ġmissed": 5884,
      "Ġhumans": 5885,
      "Ġhumming": 5886,
      "Ġadmit": 5887,
      "ttes": 5888,
      "Ġlimo": 5889,
      "Ġrefer": 5890,
      "Ġreflect": 5891,
      "Ġplanes": 5892,
      "Ġterribly": 5893,
      "Ġjumping": 5894,
      "Ġchanging": 5895,
      "Ġmathematics": 5896,
      "Ġhurric": 5897,
      "Ġgentlemen": 5898,
      "Ġpipe": 5899,
      "Ġobvious": 5900,
      "Ġregister": 5901,
      "apparently": 5902,
      "ambian": 5903,
      "Ġcleaning": 5904,
      "Ġsuccessful": 5905,
      "Ġdemanded": 5906,
      "Ġdemocr": 5907,
      "Ġprayer": 5908,
      "Ġprayed": 5909,
      "Ġpraying": 5910,
      "Ġvegan": 5911,
      "Ġcalm": 5912,
      "Ġcalmly": 5913,
      "Ġlistened": 5914,
      "Ġnerves": 5915,
      "Ġnerdy": 5916,
      "Ġbelong": 5917,
      "Ġclimbs": 5918,
      "Ġbuildings": 5919,
      "!'\"": 5920,
      "Ġsyn": 5921,
      "Ġburrit": 5922,
      "Ġpatro": 5923,
      "Ġrobot": 5924,
      "Ġrobber": 5925,
      "ohnn": 5926,
      "Ġcrowded": 5927,
      "Ġsnail": 5928,
      "Ġkicking": 5929,
      "Ġvisiting": 5930,
      "Ġbathed": 5931,
      "Ġobsession": 5932,
      "Ġincident": 5933,
      "Ġinsane": 5934,
      "Ġspending": 5935,
      "Ġimaginary": 5936,
      "Ġservices": 5937,
      "Ġbuddies": 5938,
      "Ġbuddha": 5939,
      "Ġhonor": 5940,
      "Ġisraeli": 5941,
      "Ġjehovah": 5942,
      "Ġtrai": 5943,
      "Ġvibr": 5944,
      "Ġmiche": 5945,
      "Ġsells": 5946,
      "Ġreported": 5947,
      "Ġreposts": 5948,
      "Ġattendants": 5949,
      "Ġgenerous": 5950,
      "Ġinterested": 5951,
      "Ġeden": 5952,
      "Ġbasically": 5953,
      "Ġcashier": 5954,
      "Ġruined": 5955,
      "Ġfruits": 5956,
      "Ġvirus": 5957,
      "Ġsuspected": 5958,
      "8888": 5959,
      "Ġtrois": 5960,
      "Ġwarning": 5961,
      "Ġmasturbating": 5962,
      "Ġhangs": 5963,
      "Ġhanging": 5964,
      "Ġfresh": 5965,
      "Ġpoof": 5966,
      "Ġofficers": 5967,
      "Ġscrewing": 5968,
      "Ġdraws": 5969,
      "prof": 5970,
      "Ġbullet": 5971,
      "Ġfault": 5972,
      "atively": 5973,
      "Ġpunishment": 5974,
      "Ġpackage": 5975,
      "Ġliterally": 5976,
      "Ġangel": 5977,
      "Ġangela": 5978,
      "Ġkorean": 5979,
      "Ġkoreans": 5980,
      "Ġbritain": 5981,
      "Ġpractically": 5982,
      "Ġpassionately": 5983,
      "Ġswitched": 5984,
      "Ġsouthern": 5985,
      "Ġmurder": 5986,
      "Ġmatching": 5987,
      "Ġfailed": 5988,
      "Ġoption": 5989,
      "Ġoptions": 5990,
      "Ġhealthy": 5991,
      "Ġwelcome": 5992,
      "Ġshape": 5993,
      "Ġdelivery": 5994,
      "Ġconstruction": 5995,
      "Ġproposed": 5996,
      "Ġgranted": 5997,
      "Ġwatches": 5998,
      "Ġhysteric": 5999,
      "Ġcrewman": 6000,
      "Ġfetch": 6001,
      "Ġpalind": 6002,
      "Ġthai": 6003,
      "Ġfeedback": 6004,
      "Ġorgan": 6005,
      "Ġscrotum": 6006,
      "Ġkeyhole": 6007,
      "Ġaccepted": 6008,
      "Ġcorona": 6009,
      "ĠĠĠĠĠĠĠĠĠĠĠĠĠĠĠĠĠĠĠĠĠĠĠĠĠĠĠĠĠĠĠĠ": 6010,
      "Ġdirects": 6011,
      "Ġdirectly": 6012,
      "remely": 6013,
      "Ġfilm": 6014,
      "Ġreligious": 6015,
      "oooooo": 6016,
      "Ġneighbourhood": 6017,
      "Ġnervous": 6018,
      ".*.*.*.*": 6019,
      "congratulations": 6020,
      "Ġillegal": 6021,
      "looks": 6022,
      "looking": 6023,
      "hetic": 6024,
      "Ġgarage": 6025,
      "Ġlarry": 6026,
      "Ġlarger": 6027,
      "Ġlift": 6028,
      "Ġnuts": 6029,
      "Ġnazi": 6030,
      "Ġsmiths": 6031,
      "Ġdespair": 6032,
      "Ġcereal": 6033,
      "Ġviolence": 6034,
      "Ġviolently": 6035,
      "Ġcertainly": 6036,
      "Ġrecognize": 6037,
      "function": 6038,
      "hurry": 6039,
      "Ġinclud": 6040,
      "Ġstrip": 6041,
      "Ġsteward": 6042,
      "Ġtaxpay": 6043,
      "igrants": 6044,
      "Ġproudly": 6045,
      "Ġparticularly": 6046,
      "Ġcontractor": 6047,
      "Ġconfidently": 6048,
      "Ġtreatment": 6049,
      "Ġnickel": 6050,
      "Ġnickels": 6051,
      "Ġdivorced": 6052,
      "something": 6053,
      "Ġduty": 6054,
      "Ġdoubt": 6055,
      "Ġgeor": 6056,
      "Ġpandemic": 6057,
      "Ġpours": 6058,
      "Ġlunatic": 6059,
      "Ġnaturally": 6060,
      "Ġrelieved": 6061,
      "Ġstomach": 6062,
      "Ġstroll": 6063,
      "Ġdeveloped": 6064,
      "Ġimpeach": 6065,
      "Ġadopted": 6066,
      "Ġexplorer": 6067,
      "Ġcorruption": 6068,
      "Ġcharacter": 6069,
      "Ġmartini": 6070,
      "Ġcigarettes": 6071,
      "Ġdetermined": 6072,
      "flix": 6073,
      "Ġwreck": 6074,
      "remiah": 6075,
      "Ġcups": 6076,
      "Ġpraise": 6077,
      "Ġinnocent": 6078,
      "Ġromantic": 6079,
      "Ġjokingly": 6080,
      "Ġconference": 6081,
      "Ġnods": 6082,
      "Ġcarpent": 6083,
      "Ġflashlight": 6084,
      "Ġsurrounded": 6085,
      "Ġswedish": 6086,
      "Ġdesigner": 6087,
      "Ġvehicle": 6088,
      "Ġinterrupted": 6089,
      "Ġwatermelons": 6090,
      "Ġafghanistan": 6091,
      "Ġannounces": 6092,
      "Ġcrocodile": 6093,
      "Ġzealand": 6094,
      "Ġresearch": 6095,
      "lasses": 6096,
      "passenger": 6097,
      "surprised": 6098,
      "Ġsunglasses": 6099,
      "Ġwacker": 6100,
      "Ġwraps": 6101,
      "Ġcitiz": 6102,
      "Ġfirmly": 6103,
      "Ġgreek": 6104,
      "Ġlonely": 6105,
      "Ġhaunted": 6106,
      "Ġjapanese": 6107,
      "Ġshelter": 6108,
      "Ġshiny": 6109,
      "Ġalphabet": 6110,
      "Ġvideo": 6111,
      "Ġdisease": 6112,
      "Ġdescribe": 6113,
      "Ġinternational": 6114,
      "Ġelementary": 6115,
      "Ġreluctantly": 6116,
      "Ġdetective": 6117,
      "Ġproposal": 6118,
      "Ġchemistry": 6119,
      "eventually": 6120,
      "ĠâĢĵ": 6121,
      "Ġtampons": 6122,
      "Ġtuesday": 6123,
      "Ġgurney": 6124,
      "orida": 6125,
      "Ġpepsi": 6126,
      "Ġintense": 6127,
      "Ġinsecure": 6128,
      "Ġjackson": 6129,
      "Ġassemb": 6130,
      "Ġanonymous": 6131,
      "Ġkerosene": 6132,
      "Ġneutrality": 6133,
      "Ġridiculous": 6134,
      "Ġchicago": 6135,
      "Ġlipstick": 6136,
      "Ġtrousers": 6137,
      "Ġconvinced": 6138,
      "Ġunbeliev": 6139,
      "Ġunzipped": 6140,
      "Ġunvaccinated": 6141,
      "Ġscottish": 6142,
      "Ġmarvelous": 6143,
      "Ġfamiliar": 6144,
      "Ġtownspeople": 6145,
      "Ġburrito": 6146,
      "Ġtaxpayers": 6147,
      "!âĢĻ": 6148,
      "\"'": 6149,
      "\"...": 6150,
      "'?\"": 6151,
      "*,": 6152,
      "*âĢĿ": 6153,
      "-\"": 6154,
      "-|": 6155,
      "39": 6156,
      "300": 6157,
      "58": 6158,
      "64": 6159,
      "727": 6160,
      ":-|": 6161,
      "?,": 6162,
      "?...": 6163,
      "aked": 6164,
      "bu": 6165,
      "bus": 6166,
      "boo": 6167,
      "bur": 6168,
      "btw": 6169,
      "cro": 6170,
      "cry": 6171,
      "corn": 6172,
      "cious": 6173,
      "cised": 6174,
      "cert": 6175,
      "cene": 6176,
      "credit": 6177,
      "cuff": 6178,
      "celled": 6179,
      "du": 6180,
      "dom": 6181,
      "dsm": 6182,
      "ere": 6183,
      "eat": 6184,
      "emb": 6185,
      "fif": 6186,
      "fine": 6187,
      "farm": 6188,
      "fused": 6189,
      "faced": 6190,
      "gest": 6191,
      "hr": 6192,
      "hus": 6193,
      "hook": 6194,
      "hold": 6195,
      "iat": 6196,
      "ige": 6197,
      "iers": 6198,
      "iple": 6199,
      "iator": 6200,
      "kiss": 6201,
      "lb": 6202,
      "lin": 6203,
      "lit": 6204,
      "lim": 6205,
      "land": 6206,
      "late": 6207,
      "lace": 6208,
      "log": 6209,
      "lming": 6210,
      "mi": 6211,
      "must": 6212,
      "mart": 6213,
      "mend": 6214,
      "mum": 6215,
      "morning": 6216,
      "mark": 6217,
      "mike": 6218,
      "nor": 6219,
      "nice": 6220,
      "nation": 6221,
      "new": 6222,
      "oom": 6223,
      "oir": 6224,
      "okes": 6225,
      "ober": 6226,
      "oits": 6227,
      "pir": 6228,
      "path": 6229,
      "parent": 6230,
      "pany": 6231,
      "ron": 6232,
      "rad": 6233,
      "ram": 6234,
      "rained": 6235,
      "rams": 6236,
      "sa": 6237,
      "sn": 6238,
      "sid": 6239,
      "sks": 6240,
      "sil": 6241,
      "sister": 6242,
      "smas": 6243,
      "santa": 6244,
      "salm": 6245,
      "tim": 6246,
      "tell": 6247,
      "tains": 6248,
      "uh": 6249,
      "und": 6250,
      "upt": 6251,
      "uous": 6252,
      "uel": 6253,
      "va": 6254,
      "vy": 6255,
      "vit": 6256,
      "vation": 6257,
      "vol": 6258,
      "wre": 6259,
      "wing": 6260,
      "war": 6261,
      "wet": 6262,
      "want": 6263,
      "wind": 6264,
      "wide": 6265,
      "watch": 6266,
      "wanna": 6267,
      "xed": 6268,
      "yup": 6269,
      "zing": 6270,
      "zes": 6271,
      "zens": 6272,
      "Â´": 6273,
      "Ġ..": 6274,
      "Ġ?\"": 6275,
      "Ġess": 6276,
      "Ġtan": 6277,
      "Ġtong": 6278,
      "Ġtough": 6279,
      "Ġtuck": 6280,
      "Ġtuc": 6281,
      "Ġtank": 6282,
      "Ġtarp": 6283,
      "hew": 6284,
      "hero": 6285,
      "Ġaqu": 6286,
      "Ġactor": 6287,
      "Ġauss": 6288,
      "Ġapr": 6289,
      "Ġalike": 6290,
      "Ġalex": 6291,
      "Ġsan": 6292,
      "Ġsong": 6293,
      "Ġsins": 6294,
      "Ġsized": 6295,
      "Ġsoup": 6296,
      "iner": 6297,
      "inally": 6298,
      "ination": 6299,
      "inos": 6300,
      "inence": 6301,
      "Ġtherap": 6302,
      "Ġwis": 6303,
      "Ġwore": 6304,
      "Ġwank": 6305,
      "Ġwiped": 6306,
      "Ġwrap": 6307,
      "Ġwurst": 6308,
      "real": 6309,
      "rely": 6310,
      "resp": 6311,
      "reational": 6312,
      "Ġix": 6313,
      "Ġicing": 6314,
      "Ġirel": 6315,
      "Ġbite": 6316,
      "Ġbiz": 6317,
      "Ġbatch": 6318,
      "Ġbord": 6319,
      "Ġbald": 6320,
      "Ġboun": 6321,
      "Ġbothe": 6322,
      "Ġbreeze": 6323,
      "Ġbonus": 6324,
      "Ġbdsm": 6325,
      "Ġmp": 6326,
      "Ġmis": 6327,
      "Ġmast": 6328,
      "Ġmile": 6329,
      "Ġmount": 6330,
      "Ġmisc": 6331,
      "Ġmuttered": 6332,
      "eri": 6333,
      "erate": 6334,
      "erous": 6335,
      "ona": 6336,
      "onment": 6337,
      "onished": 6338,
      "onounced": 6339,
      "Ġhi": 6340,
      "Ġhid": 6341,
      "Ġhoo": 6342,
      "Ġhip": 6343,
      "Ġhitting": 6344,
      "Ġhiding": 6345,
      "Ġdc": 6346,
      "Ġdow": 6347,
      "Ġdun": 6348,
      "Ġdive": 6349,
      "Ġdump": 6350,
      "Ġdying": 6351,
      "Ġduct": 6352,
      "Ġdiction": 6353,
      "Ġdomin": 6354,
      "Ġdwar": 6355,
      "Ġcy": 6356,
      "Ġcun": 6357,
      "Ġcart": 6358,
      "Ġcage": 6359,
      "Ġcair": 6360,
      "Ġcabb": 6361,
      "Ġcute": 6362,
      "Ġcured": 6363,
      "Ġcudd": 6364,
      "Ġcums": 6365,
      "Ġfain": 6366,
      "Ġfred": 6367,
      "Ġfib": 6368,
      "Ġfake": 6369,
      "Ġfaced": 6370,
      "Ġfoul": 6371,
      "Ġfulf": 6372,
      "aters": 6373,
      "atian": 6374,
      "atory": 6375,
      "another": 6376,
      "eday": 6377,
      "Ġtoy": 6378,
      "Ġtowers": 6379,
      "Ġga": 6380,
      "Ġgf": 6381,
      "Ġgang": 6382,
      "Ġgord": 6383,
      "Ġgaining": 6384,
      "orient": 6385,
      "Ġpis": 6386,
      "Ġpear": 6387,
      "Ġpul": 6388,
      "Ġpurch": 6389,
      "Ġpink": 6390,
      "Ġpurse": 6391,
      "Ġpadd": 6392,
      "Ġpatti": 6393,
      "Ġpsalm": 6394,
      "lly": 6395,
      "esy": 6396,
      "isian": 6397,
      "Ġyach": 6398,
      "Ġove": 6399,
      "Ġoli": 6400,
      "Ġoct": 6401,
      "Ġobe": 6402,
      "Ġoops": 6403,
      "Ġheli": 6404,
      "Ġheav": 6405,
      "Ġheated": 6406,
      "Ġhelic": 6407,
      "Ġlu": 6408,
      "Ġlat": 6409,
      "Ġlane": 6410,
      "Ġlaughter": 6411,
      "Ġlap": 6412,
      "Ġlumber": 6413,
      "Ġlining": 6414,
      "arre": 6415,
      "arant": 6416,
      "aria": 6417,
      "arnation": 6418,
      "itch": 6419,
      "enced": 6420,
      "ases": 6421,
      "ashed": 6422,
      "Ġnar": 6423,
      "Ġnaw": 6424,
      "Ġnope": 6425,
      "Ġnap": 6426,
      "Ġnanny": 6427,
      "Ġinf": 6428,
      "Ġinj": 6429,
      "Ġinvent": 6430,
      "ayed": 6431,
      "âĢĮâĢĮâĢĿ": 6432,
      "vember": 6433,
      "Ġ\"...": 6434,
      "ley": 6435,
      "legs": 6436,
      "leted": 6437,
      "lett": 6438,
      "oto": 6439,
      "using": 6440,
      "Ġbellow": 6441,
      "Ġbeating": 6442,
      "Ġbeef": 6443,
      "icot": 6444,
      "icus": 6445,
      "icted": 6446,
      "icians": 6447,
      "Ġeff": 6448,
      "Ġema": 6449,
      "Ġeights": 6450,
      "Ġeffic": 6451,
      "Ġonline": 6452,
      "lding": 6453,
      "Ġreck": 6454,
      "Ġreven": 6455,
      "Ġrejo": 6456,
      "Ġrearr": 6457,
      "ette": 6458,
      "Ġham": 6459,
      "Ġhack": 6460,
      "Ġhailed": 6461,
      "Ġhacked": 6462,
      "irting": 6463,
      "iracy": 6464,
      "ales": 6465,
      "alking": 6466,
      "alty": 6467,
      "alys": 6468,
      "alantly": 6469,
      "verts": 6470,
      "acing": 6471,
      "Ġforced": 6472,
      "Ġstress": 6473,
      "Ġstressed": 6474,
      "Ġstared": 6475,
      "Ġstuff": 6476,
      "Ġsticks": 6477,
      "Ġstoned": 6478,
      "Ġstyle": 6479,
      "Ġsticking": 6480,
      "Ġstumbled": 6481,
      "Ġdose": 6482,
      "Ġdolp": 6483,
      "Ġdocks": 6484,
      "Ġdozens": 6485,
      "Ġjes": 6486,
      "Ġjam": 6487,
      "Ġjunk": 6488,
      "Ġjuan": 6489,
      "Ġjason": 6490,
      "Ġjagger": 6491,
      "rier": 6492,
      "rified": 6493,
      "Ġuk": 6494,
      "Ġult": 6495,
      "Ġastr": 6496,
      "Ġwhoo": 6497,
      "Ġwhil": 6498,
      "stat": 6499,
      "stay": 6500,
      "sters": 6501,
      "stool": 6502,
      "stery": 6503,
      "roy": 6504,
      "roken": 6505,
      "ament": 6506,
      "amber": 6507,
      "americ": 6508,
      "Ġweb": 6509,
      "Ġweigh": 6510,
      "Ġkl": 6511,
      "Ġko": 6512,
      "Ġky": 6513,
      "Ġkay": 6514,
      "Ġkitt": 6515,
      "Ġkens": 6516,
      "Ġkgb": 6517,
      "âĢĿ?": 6518,
      "tering": 6519,
      "Ġseal": 6520,
      "Ġseven": 6521,
      "Ġseptember": 6522,
      "sex": 6523,
      "sell": 6524,
      "Ġsake": 6525,
      "Ġsaud": 6526,
      "Ġsaber": 6527,
      "Ġsauc": 6528,
      "chard": 6529,
      "child": 6530,
      "christ": 6531,
      "chalantly": 6532,
      "ths": 6533,
      "thin": 6534,
      "Ġsheik": 6535,
      "urred": 6536,
      "urity": 6537,
      "ifer": 6538,
      "iforn": 6539,
      "Ġsoil": 6540,
      "Ġsocc": 6541,
      "Ġsocks": 6542,
      "Ġsodium": 6543,
      "Ġsofa": 6544,
      "Ġshy": 6545,
      "Ġshine": 6546,
      "Ġshits": 6547,
      "Ġships": 6548,
      "Ġshaking": 6549,
      "Ġups": 6550,
      "Ġupside": 6551,
      "Ġneg": 6552,
      "Ġneat": 6553,
      "Ġnearest": 6554,
      "Ġris": 6555,
      "Ġrim": 6556,
      "Ġraz": 6557,
      "Ġrates": 6558,
      "Ġracist": 6559,
      "ĠâĢľâĢĮâĢĮ": 6560,
      "andi": 6561,
      "opter": 6562,
      "Ġouter": 6563,
      "?\",": 6564,
      "ells": 6565,
      "...âĢĿ": 6566,
      "Ġchal": 6567,
      "Ġchart": 6568,
      "Ġcharm": 6569,
      "Ġchos": 6570,
      "Ġchased": 6571,
      "Ġchips": 6572,
      "Ġchops": 6573,
      "Ġchoked": 6574,
      "Ġchamber": 6575,
      "Ġliam": 6576,
      "Ġdegre": 6577,
      "Ġdeleted": 6578,
      "gee": 6579,
      "gend": 6580,
      "Ġcanvas": 6581,
      "Ġcancelled": 6582,
      "cend": 6583,
      "ilar": 6584,
      "ending": 6585,
      "Ġsuc": 6586,
      "Ġsue": 6587,
      "Ġsuffe": 6588,
      "Ġsucking": 6589,
      "Ġallows": 6590,
      "Ġfrail": 6591,
      "Ġknot": 6592,
      "Ġknife": 6593,
      "Ġknight": 6594,
      "Ġknee": 6595,
      "verything": 6596,
      "indian": 6597,
      "uman": 6598,
      "umble": 6599,
      "umper": 6600,
      "umming": 6601,
      "Ġjog": 6602,
      "Ġjoins": 6603,
      "whatever": 6604,
      "abama": 6605,
      "tol": 6606,
      "Ġlee": 6607,
      "Ġlew": 6608,
      "Ġjustice": 6609,
      "ardless": 6610,
      "!\",": 6611,
      "quick": 6612,
      "Ġtract": 6613,
      "Ġtrail": 6614,
      "Ġtrunk": 6615,
      "Ġbod": 6616,
      "Ġboom": 6617,
      "Ġboli": 6618,
      "Ġboil": 6619,
      "Ġboards": 6620,
      "Ġbooms": 6621,
      "Ġrepair": 6622,
      "Ġreplace": 6623,
      "Ġpoke": 6624,
      "Ġcos": 6625,
      "Ġcoz": 6626,
      "Ġcoinc": 6627,
      "Ġcomin": 6628,
      "ounds": 6629,
      "Ġalber": 6630,
      "Ġalabama": 6631,
      "Ġdont": 6632,
      "asting": 6633,
      "astated": 6634,
      "astonished": 6635,
      "Ġoffer": 6636,
      "Ġtap": 6637,
      "Ġtagged": 6638,
      "Ġlol": 6639,
      "care": 6640,
      "Ġconte": 6641,
      "Ġconne": 6642,
      "Ġnodd": 6643,
      "Ġnovember": 6644,
      "Ġspam": 6645,
      "Ġspark": 6646,
      "Ġspaces": 6647,
      "Ġspilling": 6648,
      "Ġexcl": 6649,
      "Ġwhose": 6650,
      "Ġplain": 6651,
      "Ġplans": 6652,
      "Ġplastic": 6653,
      "Ġclaps": 6654,
      "Ġark": 6655,
      "Ġarmen": 6656,
      "ively": 6657,
      "Ġroar": 6658,
      "Ġroot": 6659,
      "Ġrolex": 6660,
      "Ġorchard": 6661,
      "Ġvan": 6662,
      "Ġven": 6663,
      "Ġvoted": 6664,
      "Ġvarious": 6665,
      "Ġquit": 6666,
      "Ġdowning": 6667,
      "Ġdownlo": 6668,
      "itten": 6669,
      "Ġtwain": 6670,
      "Ġproced": 6671,
      "Ġwilli": 6672,
      "agu": 6673,
      "agree": 6674,
      "agne": 6675,
      "agram": 6676,
      "Ġgrad": 6677,
      "Ġgrade": 6678,
      "Ġgramm": 6679,
      "iece": 6680,
      "Ġsomewhere": 6681,
      "soon": 6682,
      "Ġanyways": 6683,
      "Ġanywhere": 6684,
      "Ġoverwhe": 6685,
      "Ġoverturn": 6686,
      "Ġ150": 6687,
      "Ġwoma": 6688,
      "orts": 6689,
      "Ġbarman": 6690,
      "Ġbarstool": 6691,
      "Ġencl": 6692,
      "Ġenvir": 6693,
      "weight": 6694,
      "Ġbrush": 6695,
      "Ġbranch": 6696,
      "ouses": 6697,
      "ousine": 6698,
      "Ġprem": 6699,
      "udge": 6700,
      "Ġhasn": 6701,
      "Ġprint": 6702,
      "Ġprune": 6703,
      "Ġpronounced": 6704,
      "eless": 6705,
      "Ġmoder": 6706,
      "itement": 6707,
      "Ġsmir": 6708,
      "Ġsmashes": 6709,
      "ateral": 6710,
      "Ġwaking": 6711,
      "Ġdoorman": 6712,
      "Ġtee": 6713,
      "Ġtem": 6714,
      "Ġunl": 6715,
      "Ġunless": 6716,
      "Ġunused": 6717,
      "Ġunem": 6718,
      "Ġunique": 6719,
      "pering": 6720,
      "plement": 6721,
      "plexed": 6722,
      "spiracy": 6723,
      "Ġcarib": 6724,
      "Ġcarlo": 6725,
      "Ġusa": 6726,
      "Ġhanding": 6727,
      "Ġ250": 6728,
      "Ġscar": 6729,
      "Ġsciss": 6730,
      "Ġscheme": 6731,
      "Ġfathers": 6732,
      "Ġmug": 6733,
      "uces": 6734,
      "beat": 6735,
      "bean": 6736,
      "actly": 6737,
      "Ġfinn": 6738,
      "Ġgren": 6739,
      "Ġsecure": 6740,
      "Ġsecurity": 6741,
      "Ġcouples": 6742,
      "Ġhusbands": 6743,
      "Ġdisaster": 6744,
      "Ġdisorient": 6745,
      "Ġwherever": 6746,
      "Ġbets": 6747,
      "Ġimma": 6748,
      "Ġimplement": 6749,
      "ools": 6750,
      "rences": 6751,
      "rency": 6752,
      "Ġbugg": 6753,
      "Ġbuying": 6754,
      "Ġbuzz": 6755,
      "Ġflames": 6756,
      "Ġflorida": 6757,
      "ffle": 6758,
      "Ġcaut": 6759,
      "Ġcaused": 6760,
      "Ġrooms": 6761,
      "Ġroommate": 6762,
      "teen": 6763,
      "Ġmonte": 6764,
      "Ġmonoc": 6765,
      "Ġmonaster": 6766,
      "Ġmonitor": 6767,
      "Ġunderne": 6768,
      "Ġunderqualified": 6769,
      "Ġunderground": 6770,
      "Ġ300": 6771,
      "Ġmini": 6772,
      "Ġminister": 6773,
      "Ġmadam": 6774,
      "osure": 6775,
      "Ġbedside": 6776,
      "Ġworkers": 6777,
      "Ġslayer": 6778,
      "Ġmary": 6779,
      "Ġmarathon": 6780,
      "doc": 6781,
      "does": 6782,
      "dogs": 6783,
      "dollar": 6784,
      "shot": 6785,
      "shop": 6786,
      "osexual": 6787,
      "gger": 6788,
      "Ġchef": 6789,
      "othy": 6790,
      "Ġawake": 6791,
      "Ġcris": 6792,
      "Ġcrows": 6793,
      "Ġcrotch": 6794,
      "ighter": 6795,
      "Ġswiss": 6796,
      "Ġglues": 6797,
      "Ġglowing": 6798,
      "Ġwrink": 6799,
      "Ġbush": 6800,
      "Ġbushes": 6801,
      "Ġparad": 6802,
      "Ġthroughout": 6803,
      "Ġtalks": 6804,
      "Ġtalked": 6805,
      "Ġyoungest": 6806,
      "uba": 6807,
      "Ġperf": 6808,
      "Ġpermiss": 6809,
      "Ġperplexed": 6810,
      "ÂłĠĊ": 6811,
      "Ġdiet": 6812,
      "Ġdiaper": 6813,
      "Ġdiarr": 6814,
      "Ġdiabet": 6815,
      "issipp": 6816,
      "Ġstruck": 6817,
      "Ġgoldf": 6818,
      "Ġowns": 6819,
      "Ġowned": 6820,
      "Ġsometime": 6821,
      ".........": 6822,
      "Ġearned": 6823,
      "aneously": 6824,
      "Ġending": 6825,
      "nothing": 6826,
      "Ġ99": 6827,
      "Ġparties": 6828,
      "Ġserves": 6829,
      "Ġpulling": 6830,
      "Ġcontest": 6831,
      "Ġrecess": 6832,
      "Ġrecord": 6833,
      "Ġrecreational": 6834,
      "ials": 6835,
      "Ġgenet": 6836,
      "Ġreadily": 6837,
      "Ġrespons": 6838,
      "Ġcompare": 6839,
      "Ġcompared": 6840,
      "Ġordinary": 6841,
      "Ġfarming": 6842,
      "identally": 6843,
      "apri": 6844,
      "Ġlonglegs": 6845,
      "Ġposting": 6846,
      "author": 6847,
      "Ġ:(": 6848,
      "Ġhardly": 6849,
      "ledge": 6850,
      "Ġvector": 6851,
      "Ġkills": 6852,
      "forgive": 6853,
      "Ġhug": 6854,
      "Ġhugs": 6855,
      "Ġhugging": 6856,
      "Ġremain": 6857,
      "Ġremote": 6858,
      "Ġremains": 6859,
      "Ġremarks": 6860,
      "Ġkinder": 6861,
      "Ġweekly": 6862,
      "bson": 6863,
      "ograms": 6864,
      "Ġpenalty": 6865,
      "Ġbeauty": 6866,
      "Ġemph": 6867,
      "Ġemotion": 6868,
      "Ġassumed": 6869,
      "Ġaccused": 6870,
      "Ġlighting": 6871,
      "Ġ75": 6872,
      "Ġwalkie": 6873,
      "Ġlaws": 6874,
      "Ġlawyers": 6875,
      "Ġdevastated": 6876,
      "Ġconfisc": 6877,
      "Ġconfusion": 6878,
      "brace": 6879,
      "girls": 6880,
      "Ġfunn": 6881,
      "Ġnoticing": 6882,
      "Ġexplaining": 6883,
      "âĢ¦âĢĿ": 6884,
      "Ġgrandad": 6885,
      "Ġgrandson": 6886,
      "Ġhighly": 6887,
      "Ġcollection": 6888,
      "Ġcolleague": 6889,
      "Ġclasses": 6890,
      "Ġwhispering": 6891,
      "Ġindign": 6892,
      "Ġindonesian": 6893,
      "Ġinterrog": 6894,
      "Ġblowjobs": 6895,
      "ivan": 6896,
      "Ġcommand": 6897,
      "Ġcommenced": 6898,
      "ibl": 6899,
      "Ġcounted": 6900,
      "Ġbroad": 6901,
      "Ġpaid": 6902,
      "Ġpause": 6903,
      "Ġpaused": 6904,
      "Ġremembering": 6905,
      "rowave": 6906,
      "Ġsilently": 6907,
      "Ġsubway": 6908,
      "Ġsubmarine": 6909,
      "Ġapost": 6910,
      "Ġceiling": 6911,
      "Ġfreezing": 6912,
      "ailing": 6913,
      "Ġtriple": 6914,
      "Ġmetal": 6915,
      "Ġminded": 6916,
      "Ġeaten": 6917,
      "Ġhandsome": 6918,
      "wayne": 6919,
      "Ġsinned": 6920,
      "Ġsidewalk": 6921,
      "oudly": 6922,
      "lights": 6923,
      "Ġtennes": 6924,
      "Ġyelling": 6925,
      "Ġrapper": 6926,
      "?'\"": 6927,
      "Ġfiretr": 6928,
      "Ġfirewood": 6929,
      "Ġlandsca": 6930,
      "Ġrounds": 6931,
      "Ġaddiction": 6932,
      "Ġshipwre": 6933,
      "Ġclosest": 6934,
      "iety": 6935,
      "uriously": 6936,
      "Ġripp": 6937,
      "Ġrifle": 6938,
      "Ġmiles": 6939,
      "Ġmilitary": 6940,
      "Ġfrozen": 6941,
      "Ġfiguring": 6942,
      "Ġleading": 6943,
      "Ġcomplex": 6944,
      "Ġarriving": 6945,
      "Ġarrival": 6946,
      "Ġholds": 6947,
      "mbling": 6948,
      "Ġsquee": 6949,
      "Ġsquires": 6950,
      "idden": 6951,
      "Ġeyebr": 6952,
      "Ġeyeball": 6953,
      "Ġjimmy": 6954,
      "Ġlocked": 6955,
      "Ġexcuse": 6956,
      "Ġexcellent": 6957,
      "Ġexcitement": 6958,
      "Ġopening": 6959,
      "Ġmillions": 6960,
      "Ġcents": 6961,
      "Ġcentury": 6962,
      "Ġinstall": 6963,
      "Ġsoldiers": 6964,
      "Ġpaste": 6965,
      "Ġtremend": 6966,
      "Ġtrembling": 6967,
      "Ġmisses": 6968,
      "Ġhumor": 6969,
      "Ġhumble": 6970,
      "Ġjudging": 6971,
      "Ġcolors": 6972,
      "Ġadmitted": 6973,
      "Ġlimousine": 6974,
      "Ġplanned": 6975,
      "Ġfloors": 6976,
      "eek": 6977,
      "Ġbowling": 6978,
      "Ġbowls": 6979,
      "Ġmedical": 6980,
      "Ġstorage": 6981,
      "Ġsupervis": 6982,
      "olds": 6983,
      "Ġregular": 6984,
      "Ġregistration": 6985,
      "Ġregardless": 6986,
      "Ġstraw": 6987,
      "Ġ129": 6988,
      "Ġcommunion": 6989,
      "mmm": 6990,
      "Ġsniff": 6991,
      "Ġcursed": 6992,
      "Ġcurtains": 6993,
      "Ġbegging": 6994,
      "offic": 6995,
      "anything": 6996,
      "arrrr": 6997,
      "Ġbellige": 6998,
      "Ġstupidity": 6999,
      "Ġdemanding": 7000,
      "Ġvegans": 7001,
      "Ġtypo": 7002,
      "Ġtypes": 7003,
      "Ġwarmth": 7004,
      "Ġmessages": 7005,
      "Ġcaliforn": 7006,
      "Ġpainting": 7007,
      "Ġpieces": 7008,
      "Ġlisten": 7009,
      "Ġlesson": 7010,
      "Ġstreets": 7011,
      "Ġposed": 7012,
      "Ġpositive": 7013,
      "Ġconsuming": 7014,
      "Ġclimbing": 7015,
      "hhh": 7016,
      "ilian": 7017,
      "Ġedits": 7018,
      "Ġsyrian": 7019,
      "Ġsweeter": 7020,
      "Ġburst": 7021,
      "Ġpathetic": 7022,
      "Ġstores": 7023,
      "Ġrobes": 7024,
      "Ġmuslim": 7025,
      "Ġrubs": 7026,
      "Ġrubbed": 7027,
      "Ġrubbing": 7028,
      "Ġextremely": 7029,
      "Ġadvised": 7030,
      "Ġboob": 7031,
      "Ġdistingu": 7032,
      "Ġdresser": 7033,
      "Ġpetty": 7034,
      "Ġpatience": 7035,
      "Ġobscene": 7036,
      "Ġmeasles": 7037,
      "Ġmeasuring": 7038,
      "Ġclubhouse": 7039,
      "Ġflagged": 7040,
      "Ġprofessional": 7041,
      "Ġbirdie": 7042,
      "Ġpirates": 7043,
      "Ġjeff": 7044,
      "Ġjeans": 7045,
      "Ġsolar": 7046,
      "Ġsolve": 7047,
      "Ġsolid": 7048,
      "Ġtrapped": 7049,
      "Ġviagra": 7050,
      "Ġbreathalys": 7051,
      "someone": 7052,
      "Ġmidget": 7053,
      "Ġmicrosoft": 7054,
      "Ġmicrowave": 7055,
      "Ġghana": 7056,
      "Ġgravity": 7057,
      "Ġlawn": 7058,
      "ammad": 7059,
      "Ġdealer": 7060,
      "Ġcomplained": 7061,
      "Ġcomplaining": 7062,
      "Ġdisappears": 7063,
      "Ġattendant": 7064,
      "Ġattendees": 7065,
      "Ġgenerally": 7066,
      "Ġgeneration": 7067,
      "???": 7068,
      "gency": 7069,
      "Ġsides": 7070,
      "Ġmalays": 7071,
      "Ġmalaria": 7072,
      "Ġhopeless": 7073,
      "Ġlemonade": 7074,
      "Ġtraveling": 7075,
      "Ġtravelling": 7076,
      "Ġdeclared": 7077,
      "cycle": 7078,
      "Ġauto": 7079,
      "Ġautom": 7080,
      "Ġwarn": 7081,
      "Ġmrs": 7082,
      "Ġmasturbation": 7083,
      "Ġharb": 7084,
      "Ġharry": 7085,
      "Ġdirection": 7086,
      "Ġepstein": 7087,
      "Ġcanadian": 7088,
      "Ġscrewed": 7089,
      "Ġsurvived": 7090,
      "Ġpoliticians": 7091,
      "Ġsalesman": 7092,
      "Ġcorrectly": 7093,
      "Ġdrawer": 7094,
      "pointing": 7095,
      "Ġtimothy": 7096,
      "Ġmallory": 7097,
      "Ġcircle": 7098,
      "Ġcertific": 7099,
      "Ġfund": 7100,
      "Ġfuel": 7101,
      "Ġgroin": 7102,
      "Ġpanting": 7103,
      "Ġnonchalantly": 7104,
      "Ġexpert": 7105,
      "Ġpreparing": 7106,
      "Ġteenager": 7107,
      "Ġcontrovers": 7108,
      "Ġsuspend": 7109,
      "english": 7110,
      "obviously": 7111,
      "Ġsimilar": 7112,
      "Ġsorts": 7113,
      "Ġmurphy": 7114,
      "Ġhousing": 7115,
      "Ġcreature": 7116,
      "Ġfails": 7117,
      "Ġoptician": 7118,
      "Ġanimal": 7119,
      "Ġspreading": 7120,
      "Ġproperly": 7121,
      "Ġproperty": 7122,
      "Ġpleasure": 7123,
      "Ġlifeboat": 7124,
      "---": 7125,
      "5656": 7126,
      "Ġmortal": 7127,
      "Ġmasters": 7128,
      "Ġhyd": 7129,
      "Ġladies": 7130,
      "Ġwheels": 7131,
      "Ġtransgender": 7132,
      "Ġarabs": 7133,
      "Ġbriefly": 7134,
      "remember": 7135,
      "Ġmirror": 7136,
      "Ġmiracle": 7137,
      "Ġeasier": 7138,
      "Ġastonishing": 7139,
      "Ġloaded": 7140,
      "Ġoriginally": 7141,
      "Ġpopsicle": 7142,
      "Ġnormally": 7143,
      "Ġcannibals": 7144,
      "Ġsuspicious": 7145,
      "Ġiraqi": 7146,
      "7575": 7147,
      "999": 7148,
      "carl": 7149,
      "Ġerupt": 7150,
      "Ġgarb": 7151,
      "Ġmeantime": 7152,
      "Ġruler": 7153,
      "Ġchuckles": 7154,
      "Ġmajesty": 7155,
      "Ġmaiden": 7156,
      "Ġdespite": 7157,
      "Ġpatrons": 7158,
      "funny": 7159,
      "hurt": 7160,
      "supp": 7161,
      "Ġsipping": 7162,
      "Ġcases": 7163,
      "Ġcasinos": 7164,
      "Ġgift": 7165,
      "Ġgifted": 7166,
      "Ġgathering": 7167,
      "Ġpissed": 7168,
      "Ġinclude": 7169,
      "Ġrequest": 7170,
      "Ġissue": 7171,
      "Ġstripper": 7172,
      "Ġwashington": 7173,
      "chief": 7174,
      "Ġchampagne": 7175,
      "Ġsuggest": 7176,
      "Ġtransported": 7177,
      "Ġtransplant": 7178,
      "Ġtaxi": 7179,
      "Ġamongst": 7180,
      "Ġpenguins": 7181,
      "Ġphysician": 7182,
      "Ġactivities": 7183,
      "Ġgrilled": 7184,
      "Ġescape": 7185,
      "Ġescaped": 7186,
      "Ġinsisted": 7187,
      "Ġvirginity": 7188,
      "Ġappreciate": 7189,
      "Ġappreciation": 7190,
      "Ġdivorce": 7191,
      "1818": 7192,
      "sometimes": 7193,
      "turns": 7194,
      "Ġwandered": 7195,
      "Ġbiol": 7196,
      "Ġbiological": 7197,
      "Ġbayou": 7198,
      "Ġbummed": 7199,
      "Ġbahamas": 7200,
      "Ġmixed": 7201,
      "Ġmultiply": 7202,
      "Ġmentioned": 7203,
      "Ġdryer": 7204,
      "Ġcooking": 7205,
      "Ġfantastic": 7206,
      "Ġfearless": 7207,
      "Ġfools": 7208,
      "Ġpanda": 7209,
      "Ġowes": 7210,
      "Ġnatural": 7211,
      "omination": 7212,
      "Ġradio": 7213,
      "Ġdevelop": 7214,
      "Ġrepeat": 7215,
      "Ġrepeated": 7216,
      "Ġcollateral": 7217,
      "Ġroyal": 7218,
      "Ġscientists": 7219,
      "Ġimmigrants": 7220,
      "Ġadopt": 7221,
      "Ġexplorers": 7222,
      "Ġ2021": 7223,
      "Ġcharacters": 7224,
      "Ġincredulous": 7225,
      "Ġinvestigation": 7226,
      "Ġcigarette": 7227,
      "Ġdetermine": 7228,
      "3535": 7229,
      "6767": 7230,
      "7373": 7231,
      "school": 7232,
      "Ġaims": 7233,
      "Ġsomali": 7234,
      "Ġhorny": 7235,
      "Ġfacility": 7236,
      "Ġninety": 7237,
      "Ġresolution": 7238,
      "Ġislands": 7239,
      "amazed": 7240,
      "Ġsavvy": 7241,
      "Ġchatting": 7242,
      "Ġagreement": 7243,
      "Ġconvention": 7244,
      "Ġclouds": 7245,
      "Ġdownvote": 7246,
      "Ġprotection": 7247,
      "Ġcritical": 7248,
      "Ġpolitely": 7249,
      "Ġemerges": 7250,
      "Ġemergency": 7251,
      "Ġpharmacy": 7252,
      "Ġpharmacist": 7253,
      "Ġhungry": 7254,
      "Ġprofitable": 7255,
      "Ġcrawled": 7256,
      "Ġadministration": 7257,
      "Ġmotorcycle": 7258,
      "Ġsneeze": 7259,
      "Ġbasketball": 7260,
      "viewer": 7261,
      "world": 7262,
      "Ġsighs": 7263,
      "Ġtherm": 7264,
      "repost": 7265,
      "Ġboris": 7266,
      "Ġmerced": 7267,
      "Ġhonda": 7268,
      "Ġdata": 7269,
      "Ġdysfunction": 7270,
      "Ġcandle": 7271,
      "Ġnigerian": 7272,
      "Ġwealthy": 7273,
      "Ġnephew": 7274,
      "Ġrouge": 7275,
      "Ġdelicious": 7276,
      "Ġcongress": 7277,
      "Ġprecise": 7278,
      "Ġcheeks": 7279,
      "Ġcontribution": 7280,
      "Ġcompanion": 7281,
      "Ġcompete": 7282,
      "Ġvegetables": 7283,
      "Ġskills": 7284,
      "Ġaccompl": 7285,
      "Ġaccording": 7286,
      "Ġterrorists": 7287,
      "Ġsubstances": 7288,
      "Ġballoonist": 7289,
      "Ġbeginning": 7290,
      "Ġimprove": 7291,
      "Ġcoworkers": 7292,
      "Ġcommunicate": 7293,
      "Ġdestroyed": 7294,
      "Ġwildfires": 7295,
      "Ġundresses": 7296,
      "Ġecstasy": 7297,
      "vaxxer": 7298,
      "Ġemployee": 7299,
      "Ġegyptian": 7300,
      "Ġskyscraper": 7301,
      "breaking": 7302,
      "denomination": 7303,
      "finding": 7304,
      "Ġversion": 7305,
      "Ġsilly": 7306,
      "Ġsighed": 7307,
      "Ġwidow": 7308,
      "Ġwrestler": 7309,
      "Ġtorn": 7310,
      "Ġlength": 7311,
      "Ġreassigned": 7312,
      "Ġhawaii": 7313,
      "Ġfortunately": 7314,
      "Ġstares": 7315,
      "Ġjennifer": 7316,
      "keptical": 7317,
      "Ġkilograms": 7318,
      "Ġsobbed": 7319,
      "Ġcongratul": 7320,
      "Ġvacation": 7321,
      "Ġprogrammer": 7322,
      "Ġmodel": 7323,
      "Ġunusual": 7324,
      "Ġuncomfortable": 7325,
      "Ġmuffled": 7326,
      "ohshitohshit": 7327,
      "Ġbuffet": 7328,
      "Ġflowers": 7329,
      "Ġbreathing": 7330,
      "Ġglistening": 7331,
      "Ġpercentage": 7332,
      "Ġidentical": 7333,
      "Ġphrase": 7334,
      "Ġcorpor": 7335,
      "Ġrednecks": 7336,
      "Ġbodyguards": 7337,
      "Ġreferral": 7338,
      "Ġsyncing": 7339,
      "Ġpatrol": 7340,
      "Ġvibrator": 7341,
      "Ġmichelle": 7342,
      "profit": 7343,
      "Ġincluding": 7344,
      "Ġlunatics": 7345,
      "Ġcitizens": 7346,
      "Ġassembled": 7347,
      "buk": 7348,
      "fifty": 7349,
      "farmer": 7350,
      "wetherspoons": 7351,
      "Ġaussie": 7352,
      "Ġapricot": 7353,
      "Ġtherapist": 7354,
      "Ġireland": 7355,
      "Ġbizarre": 7356,
      "Ġbothered": 7357,
      "Ġdictionary": 7358,
      "Ġcairo": 7359,
      "Ġgordon": 7360,
      "Ġpistol": 7361,
      "Ġpurchased": 7362,
      "Ġoctober": 7363,
      "Ġhelium": 7364,
      "Ġheavily": 7365,
      "Ġhelicopter": 7366,
      "Ġlumberjack": 7367,
      "Ġefficient": 7368,
      "Ġreckon": 7369,
      "Ġrevenge": 7370,
      "Ġrearrange": 7371,
      "Ġdockside": 7372,
      "Ġastron": 7373,
      "Ġwhoops": 7374,
      "Ġwhilst": 7375,
      "Ġkensing": 7376,
      "Ġsaudi": 7377,
      "children": 7378,
      "Ġsoccer": 7379,
      "Ġchosen": 7380,
      "Ġdegrees": 7381,
      "Ġsuffered": 7382,
      "Ġtractor": 7383,
      "Ġcoincidence": 7384,
      "Ġcontext": 7385,
      "Ġconnection": 7386,
      "Ġarmenian": 7387,
      "Ġdownloading": 7388,
      "Ġprocedure": 7389,
      "Ġoverwhelming": 7390,
      "Ġoverturned": 7391,
      "Ġenvironment": 7392,
      "Ġmodern": 7393,
      "Ġunemplo": 7394,
      "Ġcaribbean": 7395,
      "Ġdisoriented": 7396,
      "Ġbuggy": 7397,
      "Ġmonocle": 7398,
      "Ġmonastery": 7399,
      "Ġunderneath": 7400,
      "Ġpermission": 7401,
      "Ġdiarrhea": 7402,
      "Ġdiabetes": 7403,
      "issippi": 7404,
      "Ġresponsible": 7405,
      "Ġconfiscate": 7406,
      "Ġtennessee": 7407,
      "Ġfiretrucks": 7408,
      "Ġsqueeze": 7409,
      "Ġbelligerent": 7410,
      "Ġcalifornia": 7411,
      "Ġdistinguished": 7412,
      "Ġbreathalyser": 7413,
      "Ġcertificate": 7414
    },
    "merges": [
      "Ġ t",
      "h e",
      "Ġ a",
      "Ġ s",
      "i n",
      "Ġt he",
      "Ġ w",
      "â Ģ",
      "o u",
      "r e",
      "Ġ i",
      "Ġ b",
      "Ġ m",
      "n d",
      "e r",
      "o n",
      "Ġ h",
      "Ġ d",
      "Ġ c",
      "Ġ f",
      "a t",
      "a n",
      "âĢ Į",
      "e d",
      "Ġt o",
      "in g",
      "Ġ g",
      "o r",
      "Ġ p",
      "l l",
      "e s",
      "Ġa nd",
      "i s",
      "Ġ y",
      "Ġ o",
      "Ġ he",
      "Ġ l",
      "a r",
      "i t",
      "e n",
      "Ġt h",
      "Ġy ou",
      "a s",
      "Ġ n",
      "Ġ in",
      "o m",
      "a y",
      "âĢĮ âĢĮ",
      "o w",
      "Ġo f",
      "v e",
      "Ġ \"",
      "l e",
      "i d",
      "o t",
      "u s",
      "Ġb e",
      "i c",
      "Ġ e",
      "Ġ on",
      "l d",
      "Ġ re",
      "Ġi t",
      "e t",
      ". .",
      "Ġh a",
      "i r",
      "a l",
      "Ġi s",
      "t he",
      "v er",
      "a c",
      "i m",
      "Ġf or",
      "u t",
      "Ġs t",
      "g h",
      "Ġd o",
      "Ġ j",
      "r i",
      "k e",
      "Ġ u",
      "a d",
      "Ġa s",
      "Ġw h",
      "s t",
      "l y",
      "Ġw as",
      "Ġh is",
      "ou t",
      "Ġth at",
      "Ġm y",
      "Ġa n",
      "r o",
      "en t",
      "Ġ Ċ",
      "' s",
      "o o",
      ". \"",
      "âĢ Ļ",
      "a ll",
      "Ġm e",
      "it h",
      "a m",
      "Ġw e",
      "ay s",
      "Ġ k",
      "Ġw ith",
      "âĢ Ŀ",
      "t er",
      "Ġs e",
      "âĢ ľ",
      "k s",
      "Ġm an",
      "s e",
      "Ġg o",
      "gh t",
      "Ġs a",
      "c h",
      "t h",
      "Ġs he",
      "u r",
      "Ġa t",
      "i f",
      "Ġs o",
      "i on",
      "Ġs h",
      "Ġu p",
      "Ġhe r",
      "Ġn e",
      "Ġs ays",
      "he r",
      "' t",
      "Ġ r",
      "Ġ âĢľ",
      "ou ld",
      "a nd",
      "Ġb ut",
      "Ġth is",
      "w h",
      "i ll",
      "k ed",
      "us t",
      "Ġh im",
      "Ġha ve",
      "Ġthe y",
      "o p",
      "om e",
      "Ġ out",
      "l i",
      "? \"",
      "e ll",
      "Ġg et",
      ".. .",
      "Ġa re",
      "an t",
      "u n",
      "a in",
      "Ġc h",
      "on e",
      "Ġw he",
      "Ġl i",
      "Ġyou r",
      "k ing",
      "Ġd e",
      "Ġsa id",
      "p p",
      "ar t",
      "g e",
      "Ġc an",
      "c e",
      "ac k",
      "i l",
      "es t",
      "Ġn ot",
      "c t",
      "e nd",
      "Ġon e",
      "Ġs u",
      "o re",
      "Ġa ll",
      "Ġf r",
      "Ġk n",
      "ver y",
      "in d",
      "u m",
      "Ġwh at",
      "all y",
      "re d",
      "Ġm a",
      "Ġg u",
      "c k",
      "Ġj o",
      "wh at",
      "a b",
      "t o",
      "if e",
      "Ġa b",
      "er s",
      "Ġl e",
      "Ġj ust",
      "ar d",
      "! \"",
      "Ġwhe n",
      "q u",
      "Ġd id",
      "Ġt r",
      "Ġw or",
      "Ġb o",
      ". âĢĿ",
      "at e",
      "ou r",
      "Ġre p",
      "i an",
      "is t",
      "us e",
      "Ġthe re",
      "Ġp o",
      "Ġc o",
      "Ġa g",
      "Ġc om",
      "es s",
      "ou nd",
      "Ġa l",
      "am e",
      "Ġd on",
      "as t",
      "Ġof f",
      "Ġt a",
      "Ġin to",
      "s s",
      "Ġ ĠĊ",
      "Ġha d",
      "ir l",
      "i g",
      "Ġl o",
      "Ġkn ow",
      "Ġfr om",
      "oo d",
      "Ġthe m",
      "Ġw ould",
      "Ġab out",
      "e ar",
      "c a",
      "ow n",
      "Ġi f",
      "0 0",
      "Ġc on",
      "Ġn o",
      "Ġs p",
      "Ġe x",
      "i ght",
      "Ġb ack",
      "Ġthe n",
      "m y",
      "m an",
      "f ter",
      "Ġli ke",
      "ic e",
      "im e",
      "is h",
      "Ġgu y",
      "r a",
      "ic k",
      "Ġwh o",
      "in e",
      "u l",
      "' m",
      "Ġd ay",
      "Ġp l",
      "Ġf e",
      "Ġl oo",
      "Ġw al",
      "Ġh ow",
      "Ġc l",
      "Ġw ife",
      "Ġas ked",
      "id e",
      "Ġa r",
      "i ve",
      "Ġ ro",
      "Ġrep li",
      "Ġ or",
      "r y",
      "n t",
      "Ġ v",
      "Ġw ant",
      "as s",
      "Ġg ot",
      "e p",
      "at her",
      "Ġg irl",
      "Ġe very",
      "ri end",
      "a re",
      "on g",
      "Ġ qu",
      "Ġd own",
      "it t",
      "ca use",
      "Ġt w",
      "Ġp ro",
      "Ġw ill",
      "Ġse e",
      "Ġb y",
      "Ġo ld",
      "a g",
      "o nd",
      "Ġg r",
      "i e",
      "Ġa m",
      "Ġs ome",
      "ot her",
      "Ġas ks",
      "s o",
      "ur n",
      "Ġthe ir",
      "at ion",
      "Ġan y",
      "Ġc all",
      "Ġo ver",
      "Ġt ime",
      "ir st",
      "Ġb l",
      "p t",
      "Ġth in",
      "Ġ 1",
      "Ġth an",
      "Ġw om",
      "Ġ Ġ",
      "or t",
      ", \"",
      "Ġb ar",
      "Ġf irst",
      "' ll",
      "l f",
      "Ġ en",
      "Ġt ell",
      "v ing",
      "w e",
      "Ġa fter",
      "Ġb r",
      "Ġag ain",
      "Ġs ay",
      "ou s",
      "re e",
      "ou gh",
      "Ġwe re",
      "Ġp re",
      "Ġbe cause",
      "u d",
      "u ck",
      "Ġh as",
      "Ġc ould",
      "Ġp e",
      "i le",
      "Ġn ow",
      "h ing",
      "k es",
      "a ve",
      "the r",
      "Ġst art",
      "Ġd r",
      "u re",
      "Ġy ear",
      "Ġtw o",
      "x t",
      "Ġp r",
      "Ġto o",
      "? âĢĿ",
      "Ġgo ing",
      "e l",
      "v en",
      "he s",
      "op le",
      "ri ght",
      "Ġ $",
      "Ġwom an",
      "v es",
      "Ġm o",
      "it e",
      "o l",
      "Ġs m",
      "at er",
      "ed it",
      "Ġne w",
      "n o",
      "m e",
      "Ġs on",
      "b er",
      "* *",
      "Ġw a",
      "Ġpe ople",
      "y ou",
      "a u",
      "b le",
      "w ell",
      "Ġw ent",
      "Ġdo or",
      "f e",
      "ac h",
      "itt le",
      "h ow",
      "Ġt e",
      "d ay",
      "or n",
      "Ġne xt",
      "Ġl et",
      "Ġu n",
      "p er",
      "p le",
      "Ġse x",
      "s p",
      "Ġd ad",
      "Ġo ther",
      "u ll",
      "he d",
      "Ġc ar",
      "' re",
      "Ġl ittle",
      "Ġbo y",
      "i re",
      "p s",
      "Ġ us",
      "at h",
      "it y",
      "as e",
      "Ġha nd",
      "Ġ 2",
      "Ġs c",
      "Ġf ather",
      "Ġg ood",
      "Ġm u",
      "Ġhe re",
      "' ve",
      "d d",
      "u c",
      "ou ght",
      "f ore",
      "Ġf riend",
      "Ġdo es",
      "Ġta ke",
      "b and",
      "i ld",
      "us band",
      "a ge",
      "b e",
      "m ent",
      "re ss",
      "Ġto ld",
      "Ġon ly",
      "ac e",
      "ct or",
      "Ġne ver",
      "wh y",
      "Ġbe en",
      "b o",
      "Ġde c",
      "ac t",
      "one y",
      "Ġmu ch",
      "th ing",
      "end er",
      "en s",
      "Ġgo es",
      "th at",
      "ou se",
      "ar m",
      "e a",
      "p e",
      "Ġm ore",
      "Ġh ome",
      "d y",
      "Ġf in",
      "an g",
      "Ġg re",
      "Ġse c",
      "Ġjo ke",
      "Ġc ou",
      "Ġthin k",
      "p l",
      "nd er",
      "Ġh usband",
      "Ġget s",
      "a ir",
      "Ġm om",
      "se lf",
      "Ġrepli es",
      "w n",
      "Ġw ay",
      "f t",
      "Ġ right",
      "Ġd ri",
      "Ġn ight",
      "Ġbe fore",
      "Ġth ing",
      "Ġma ke",
      "Ġrepli ed",
      "o h",
      "Ġa pp",
      "Ġd is",
      "Ġwhe re",
      "Ġ very",
      "Ġbe t",
      "Ġ ke",
      "Ġi m",
      "Ġre ally",
      "i z",
      "t ing",
      "Ġ '",
      "Ġh o",
      "Ġth r",
      "oo l",
      "Ġt urn",
      "re n",
      "Ġb u",
      "Ġf l",
      "Ġf ind",
      "Ġp ut",
      "Ġdid n",
      "f f",
      "y es",
      "Ġc a",
      "Ġf o",
      "Ġha pp",
      "Ġro om",
      "t e",
      "Ġm on",
      "Ġu nder",
      "Ġwh y",
      "um p",
      "Ġhe ad",
      "au gh",
      "Ġh ouse",
      "Ġdo g",
      "i p",
      "art ender",
      "a v",
      "i es",
      "Ġ 3",
      "Ġm in",
      "ad y",
      "Ġfe w",
      "v ed",
      "Ġm ad",
      "a w",
      "n y",
      "Ġs ame",
      "Ġsh ow",
      "c c",
      "o s",
      "Ġb ed",
      "s he",
      "Ġdo ctor",
      "ri est",
      "Ġwh ile",
      "Ġwor k",
      "Ġdr in",
      "Ġs l",
      "Ġm ar",
      "Ġp ass",
      "ic h",
      "d o",
      "e w",
      "Ġb artender",
      "Ġwe ll",
      "s ide",
      "w he",
      "Ġb re",
      "Ġm oney",
      "Ġwal ks",
      "Ġwa it",
      "s h",
      "Ġat t",
      "Ġsh ould",
      "l es",
      "w ays",
      "Ġ -",
      "f riend",
      "o se",
      "u e",
      "Ġs ur",
      "! âĢĿ",
      "g g",
      "Ġa d",
      "Ġc he",
      "Ġo p",
      "Ġe ven",
      "Ġ 5",
      "Ġc ome",
      "at ch",
      "en ce",
      "ot h",
      "ut es",
      "t y",
      "Ġa w",
      "Ġth ought",
      "op e",
      "Ġl ater",
      "m a",
      "n g",
      "Ġc r",
      "Ġal ways",
      "i gh",
      "Ġs w",
      "an s",
      "Ġg l",
      "ar s",
      "Ġgo d",
      "Ġne ed",
      "Ġyear s",
      "Ġsec ond",
      "g et",
      "ab le",
      "Ġar ound",
      "Ġw r",
      "Ġb us",
      "om et",
      "Ġch ild",
      "ab b",
      "Ġb ig",
      "Ġf uc",
      "at ed",
      "Ġp ar",
      "Ġl ast",
      "Ġwe e",
      "Ġthr ough",
      "Ġt al",
      "ir d",
      "Ġst ill",
      "ri ed",
      "Ġman y",
      "\" .",
      "Ġp le",
      "ll ow",
      "Ġyou ng",
      "Ġdec id",
      "Ġmad e",
      "Ġsu re",
      "m ed",
      "u b",
      "Ġp er",
      "Ġsa w",
      "Ġjo b",
      "Ġpo l",
      "Â ł",
      "Ġd i",
      "Ġg ive",
      "or y",
      "is s",
      "ar ing",
      "it s",
      "âĢĮâĢĮ ,",
      "Ġst r",
      "th is",
      "Ġm other",
      "an k",
      "Ġan s",
      "Ġjo h",
      "Ġmin utes",
      "n a",
      "u p",
      "an ge",
      "is e",
      "Ġgo ld",
      "Ġen g",
      "b ut",
      "Ġb est",
      "Ġd es",
      "Ġc ame",
      "Ġo wn",
      "Ġl ife",
      "Ġe ver",
      "Ġjoh n",
      ", âĢĿ",
      "or d",
      "Ġha ving",
      "oo k",
      "l p",
      "o c",
      "Ġre t",
      "Ġlo ve",
      "Ġloo ks",
      "ĠĠ ĠĠ",
      "Ġtoo k",
      "Ġgre at",
      "i ous",
      "Ġs omet",
      "in t",
      ".. ..",
      "Ġ (",
      "Ġb it",
      "Ġe ar",
      "the y",
      "j o",
      "o st",
      "Ġ our",
      "Ġf ound",
      "an e",
      "ar y",
      "Ġbe ing",
      "Ġe nd",
      "Ġe ach",
      "a k",
      "o k",
      "Ġ 6",
      "Ġst op",
      "Ġsu pp",
      "Ġfo llow",
      "a z",
      "n ot",
      "Ġ 9",
      "or ry",
      "Ġp riest",
      "Ġhe lp",
      "Ġth ree",
      "00 0",
      "Ġany thing",
      "Ġthan ks",
      "' d",
      "n e",
      "Ġp art",
      "es e",
      "en ed",
      "ver s",
      "ard s",
      "u ally",
      "Ġs er",
      "Ġg i",
      "Ġp ull",
      "Ġcon t",
      "Ġgirl friend",
      "orn ing",
      "on t",
      "Ġre c",
      "Ġst and",
      "Ġk id",
      "Ġse es",
      "augh ter",
      "i al",
      "Ġb oth",
      "er ic",
      "at ing",
      "Ġg en",
      "Ġp ic",
      "Ġre ad",
      "Ġre sp",
      "Ġas k",
      "am p",
      "Ġke ep",
      "c l",
      "g s",
      "m on",
      "y ing",
      "Ġan other",
      "ate ly",
      "Ġcom p",
      "Ġex pl",
      "Ġor d",
      "o ck",
      "Ġm orning",
      "Ġf arm",
      "ll e",
      "id ent",
      "Ġdo ing",
      "li e",
      "pp ed",
      "Ġloo k",
      "Ġen ough",
      "Ġstart ed",
      "Ġdoes n",
      "Ġsomet hing",
      "a p",
      "a fter",
      "n ed",
      "r u",
      "Ġ #",
      "Ġi d",
      "Ġl ong",
      "Ġn ame",
      "are nt",
      "Ġ ent",
      "Ġd ro",
      "Ġon ce",
      "ac her",
      "ers on",
      "Ġpo st",
      "Ġevery one",
      "Ġple ase",
      "a ut",
      "i ly",
      "Ġ :",
      "Ġm ay",
      "Ġm ust",
      "at es",
      "is ter",
      "Ġth ose",
      "Ġr un",
      "Ġnot hing",
      "Ġta kes",
      "Ġtell s",
      "m ber",
      "re am",
      "Ġh ard",
      "Ġe l",
      "st e",
      "Ġle ft",
      "Ġcom es",
      "Ġthan k",
      "Ġret urn",
      "! !",
      "l ed",
      "Ġ ve",
      "Ġs at",
      "âĢ ĺ",
      "ro om",
      "Ġk ill",
      "Ġsh out",
      "Ġtr ump",
      "Ġam eric",
      "Ġmom ent",
      "y er",
      "Ġs orry",
      "Ġh ot",
      "Ġd ays",
      "Ġy es",
      "it ed",
      "ot s",
      "Ġget ting",
      "Ġstart s",
      "Ġfin ally",
      "Ġans w",
      "f or",
      "g er",
      "in s",
      "Ġb ad",
      "Ġh u",
      "Ġd if",
      "Ġc le",
      "us s",
      "Ġbe c",
      "Ġre m",
      "Ġk ind",
      "Ġcall ed",
      "Ġcou ple",
      "Ġdrin k",
      "Ġwee k",
      "b s",
      "i x",
      "l ess",
      "o g",
      "Ġs k",
      "Ġp en",
      "Ġp erson",
      "Ġbe aut",
      "Ġe m",
      "Ġre al",
      "Ġas s",
      "un ch",
      "Ġwor d",
      "Ġguy s",
      "Ġsome one",
      "Ġpol ice",
      "Ġa cc",
      "Ġh our",
      "Ġp h",
      "ut e",
      "Ġr abb",
      "Ġli ght",
      "itt ing",
      "Ġpre t",
      "Ġlet ter",
      "ress ed",
      "i a",
      "Ġ 7",
      "Ġb ir",
      "Ġl ady",
      "Ġbe h",
      "Ġfr ont",
      "Ġwal k",
      "Ġthin ks",
      "whe n",
      "c ed",
      "d ad",
      "n ing",
      "o ve",
      "he y",
      "Ġw on",
      "Ġw ind",
      "Ġm at",
      "Ġh or",
      "Ġd aughter",
      "Ġl ine",
      "Ġl aw",
      "Ġde v",
      "Ġcon f",
      "Ġloo ked",
      "ble m",
      "dd it",
      "Ġwr ong",
      "Ġbeaut if",
      "Ġbir th",
      "b r",
      "e en",
      "g irl",
      "t s",
      "Ġ use",
      "Ġa ct",
      "Ġs ch",
      "on s",
      "Ġf un",
      "Ġf av",
      "Ġhe ard",
      "Ġre st",
      "Ġre ddit",
      "Ġwh ich",
      "est ion",
      "Ġnot ic",
      "ig n",
      "ish man",
      "Ġpl ay",
      "Ġwant ed",
      "Ġqu estion",
      "Ġfriend s",
      "Ġmon th",
      "Ġdecid ed",
      "Ġexpl ain",
      "Ġbeautif ul",
      "Ġa ir",
      "Ġi r",
      "Ġm en",
      "Ġf ell",
      "Ġto day",
      "Ġo k",
      "âĢĮâĢĮ âĢĮâĢĮ",
      "Ġit s",
      "Ġma x",
      "Ġal so",
      "we en",
      "Ġbet ween",
      "e red",
      "v ent",
      "y s",
      "Ġ âĢĮâĢĮ",
      "Ġ âĢĺ",
      "âĢ ¦",
      "Ġc our",
      "us ed",
      "Ġj ew",
      "um ber",
      "Ġwor ld",
      "Ġlo st",
      "Ġfe el",
      "Ġloo king",
      "Ġpro blem",
      "Ġgr and",
      "Ġbr other",
      "Ġmo st",
      "air s",
      "Ġdif fe",
      "p h",
      "Ġ 4",
      "Ġt er",
      "Ġh igh",
      "Ġre me",
      "Ġu nt",
      "Ġhim self",
      "Ġco lle",
      "Ġsm all",
      "Ġdri ver",
      "Ġthing s",
      "Ġbet ter",
      "Ġfuc king",
      "Ġresp ond",
      "z e",
      "Ġt able",
      "Ġw in",
      "at i",
      "Ġp ay",
      "Ġhe ll",
      "Ġn a",
      "the n",
      "the re",
      "Ġwal ked",
      "Ġcl ass",
      "Ġbeh ind",
      "Ġwind ow",
      "Ġunt il",
      "e ver",
      "i er",
      "p r",
      "t w",
      "Ġ ĠĠĊ",
      "Ġa c",
      "Ġs ister",
      "Ġs itting",
      "at s",
      "at ic",
      "or s",
      "Ġhe ar",
      "Ġwh is",
      "ant s",
      "ct ion",
      "Ġwal king",
      "Ġ2 0",
      "Ġsch ool",
      ". '",
      "f ather",
      "o ice",
      "t en",
      "Ġs ir",
      "Ġthe se",
      "Ġw atch",
      "Ġin d",
      "Ġin ter",
      "ic er",
      "ro ss",
      "Ġme et",
      "Ġpl ace",
      "Ġbl ow",
      "Ġbr ing",
      "Ġpre s",
      "Ġca pt",
      "Ġtal king",
      "Ġjohn ny",
      "c hes",
      "i v",
      "o ke",
      "Ġs et",
      "is ed",
      "Ġth ird",
      "Ġwith out",
      "Ġcom m",
      "Ġevery thing",
      "Ġte acher",
      "Ġaw ay",
      "Ġpret ty",
      "Ġbirth day",
      "\" ,",
      "a ld",
      "g n",
      "g u",
      "i b",
      "Ġa ge",
      "Ġw ish",
      "Ġw ater",
      "re t",
      "re w",
      "Ġb ill",
      "al s",
      "im es",
      "Ġse en",
      "Ġso on",
      "Ġbo ss",
      "Ġcou nt",
      "Ġhapp ened",
      "Ġunder st",
      "Ġeng l",
      "Ġfarm er",
      "Ġrabb i",
      "g ic",
      "i ed",
      "r ist",
      "Ġb ro",
      "Ġc are",
      "Ġf uck",
      "an ce",
      "Ġp a",
      "Ġl augh",
      "Ġbe er",
      "et er",
      "Ġag o",
      "Ġqu ick",
      "Ġop ens",
      "Ġreme mber",
      "b y",
      "m s",
      "r ow",
      "s on",
      "Ġf am",
      "Ġf ace",
      "Ġg ave",
      "Ġp arent",
      "le ep",
      "Ġdo ll",
      "ke y",
      "Ġk ing",
      "ul t",
      "Ġcould n",
      "Ġus ed",
      "Ġsupp ort",
      "a im",
      "f fe",
      "i red",
      "Ġs al",
      "Ġs il",
      "Ġc or",
      "ot e",
      "Ġsu b",
      "Ġsu ch",
      "Ġle ave",
      "Ġpo int",
      "Ġcom ing",
      "Ġany one",
      "Ġbu y",
      "Ġkid s",
      "Ġcapt ain",
      "Ġparent s",
      "i ble",
      "y e",
      "Ġt est",
      "he m",
      "Ġa p",
      "Ġb ab",
      "Ġc e",
      "Ġf ree",
      "Ġp op",
      "as h",
      "Ġin v",
      "Ġbe lie",
      "Ġst ory",
      "Ġout side",
      "Ġle a",
      "Ġag re",
      "Ġv is",
      "Ġsc ream",
      "bo dy",
      "pe ct",
      "iz ed",
      "Ġlaw yer",
      "1 00",
      "a il",
      "c hed",
      "m ic",
      "o d",
      "t on",
      "Ġ ...",
      "Ġt ri",
      "Ġt ree",
      "Ġm et",
      "Ġm ind",
      "Ġf ull",
      "Ġto p",
      "Ġp ope",
      "ar k",
      "ar ge",
      "it al",
      "it ion",
      "as ter",
      "Ġe at",
      ".. .\"",
      "Ġmy self",
      "Ġsp e",
      "Ġam az",
      "Ġwom en",
      "Ġsay ing",
      "Ġhand s",
      "whe re",
      "Ġansw er",
      "tw o",
      "5 0",
      "t ed",
      "u al",
      "w ay",
      "č Ċ",
      "Ġ *",
      "Ġ 8",
      "Ġt ou",
      "Ġs in",
      "Ġs ound",
      "Ġs ide",
      "ou d",
      "re st",
      "Ġb all",
      "Ġf our",
      "an c",
      "Ġto wn",
      "is hed",
      "Ġin side",
      "Ġe yes",
      "Ġha lf",
      "Ġsh it",
      "li ght",
      "Ġma il",
      "Ġgu ess",
      "Ġtr y",
      "Ġpl ane",
      "Ġgen ie",
      "f in",
      "i ately",
      "Ġt en",
      "Ġa f",
      "Ġd uck",
      "Ġd ave",
      "Ġy ell",
      "Ġst ay",
      "Ġr a",
      "wh o",
      "un k",
      "Ġch rist",
      "Ġma kes",
      "Ġwho le",
      "ry ing",
      "ud ent",
      "ea h",
      "Ġdis c",
      "get her",
      "Ġchild ren",
      "med iately",
      "Ġel se",
      "Ġbelie ve",
      "2 0",
      "? '",
      "d on",
      "f ul",
      "Ġw all",
      "Ġd ra",
      "Ġc at",
      "Ġf ire",
      "Ġto gether",
      "ing s",
      "Ġl and",
      "as y",
      "Ġn umber",
      "ow s",
      "st airs",
      "ur ing",
      "Ġr ound",
      "Ġqu een",
      "bo y",
      "Ġturn ed",
      "Ġid ea",
      "h a",
      "Ġa dd",
      "Ġs ent",
      "Ġs ign",
      "in ess",
      "Ġh it",
      "Ġc op",
      "Ġbe g",
      "Ġre d",
      "Ġst e",
      "Ġsh ip",
      "Ġch ange",
      "Ġcl ot",
      "Ġcl os",
      "Ġv oice",
      "be cause",
      "Ġim p",
      "Ġim mediately",
      "a ke",
      "d it",
      "i et",
      "p ed",
      "r act",
      "u ri",
      "Ġ ri",
      "Ġm il",
      "on es",
      "Ġf ood",
      "Ġto m",
      "Ġn or",
      "âĢĮâĢĮ .",
      "out h",
      "ro so",
      "Ġsh o",
      "il ed",
      "Ġjo kes",
      "Ġbo dy",
      "Ġgirl s",
      "Ġapp ro",
      "Ġfind s",
      "Ġhapp y",
      "Ġsur pr",
      "Ġpen is",
      "Ġfam ily",
      "roso ft",
      "! <",
      "> !",
      "c he",
      "c om",
      "c le",
      "l ing",
      "n er",
      "w w",
      "Ġs ing",
      "Ġb ud",
      "Ġh un",
      "Ġf ro",
      "Ġf ig",
      "Ġf ive",
      "Ġl ot",
      "Ġin t",
      "ic al",
      "Ġwe aring",
      "Ġse nd",
      "Ġsh op",
      "Ġkn ew",
      "Ġle ad",
      "Ġco ld",
      "Ġcom ple",
      "iz e",
      "Ġturn s",
      "ren ce",
      "Ġfuc ked",
      "Ġdi ed",
      "Ġdev il",
      "Ġna ked",
      "Ġunderst and",
      "a h",
      "k en",
      "n ow",
      "o le",
      "p riest",
      "w ards",
      "Ġ >!",
      "ou nt",
      "re nt",
      "Ġb ath",
      "Ġd in",
      "Ġc ow",
      "Ġc ust",
      "Ġc ab",
      "en se",
      "Ġn am",
      "om s",
      "ow d",
      "Ġe le",
      "Ġre as",
      "Ġis n",
      "Ġj ack",
      "Ġwas n",
      "Ġsu dd",
      "Ġle gs",
      "Ġco nd",
      "Ġco st",
      "Ġoff ice",
      "Ġta king",
      "ear s",
      "Ġar ri",
      "Ġpro f",
      "Ġgr ound",
      "Ġagain st",
      "ol og",
      "Ġho ld",
      "Ġdecid es",
      "ste ad",
      "Ġdoll ars",
      "Ġsudd en",
      "d id",
      "g re",
      "m b",
      "Ġs qu",
      "Ġd ick",
      "Ġc ra",
      "Ġf ore",
      "Ġf act",
      "at t",
      "as k",
      "Ġn ice",
      "id d",
      "us h",
      "Ġe ye",
      "Ġha ir",
      "Ġj im",
      "Ġshe ep",
      "ion s",
      "Ġne ar",
      "Ġli ve",
      "um b",
      "red dit",
      "Ġle g",
      "Ġal ong",
      "Ġoff icer",
      "Ġlo c",
      "Ġex c",
      "Ġbl ack",
      "sp ital",
      "Ġwait ing",
      "Ġop en",
      "Ġtal k",
      "cl aim",
      "Ġameric an",
      "Ġmonth s",
      "mic rosoft",
      "a ur",
      "e ct",
      "j ust",
      "l t",
      "n ess",
      "Ġ .",
      "Ġ **",
      "Ġs it",
      "ou n",
      "Ġm ill",
      "er ing",
      "Ġd one",
      "Ġc ent",
      "Ġf ly",
      "Ġf ish",
      "Ġp ri",
      "Ġin st",
      "Ġre ve",
      "ir t",
      "st it",
      "Ġsa nd",
      "Ġso ld",
      "ce pt",
      "Ġle ar",
      "Ġwor king",
      "Ġdon ald",
      "Ġsp ea",
      "Ġho spital",
      "Ġbed room",
      "Ġgl ass",
      "Ġeng ine",
      "Ġown er",
      "Ġgi ves",
      "Ġent ire",
      "Ġph one",
      "Ġfav or",
      "a red",
      "c ks",
      "e x",
      "r al",
      "u es",
      "v id",
      "Ġt imes",
      "Ġs us",
      "er t",
      "Ġh ope",
      "Ġd uring",
      "Ġf all",
      "Ġp ast",
      "Ġl ate",
      "Ġl uck",
      "en g",
      "Ġn ick",
      "Ġbe at",
      "Ġas king",
      "ent ly",
      "ent ion",
      "Ġsh ort",
      "Ġch ar",
      "Ġch ick",
      "Ġde ad",
      "Ġde ath",
      "Ġkn ock",
      "Ġpo ss",
      "Ġwould n",
      "Ġcon vers",
      "ul ar",
      "Ġdr unk",
      "Ġpr om",
      "Ġsec ret",
      "Ġdri ve",
      "Ġput s",
      "Ġbus iness",
      "Ġstr ang",
      "ĠĠĠĠ ĠĠĠĠ",
      "Ġpart y",
      "Ġord er",
      "Ġcolle ge",
      "Ġquick ly",
      "Ġclot hes",
      "2 00",
      "m ing",
      "m ost",
      "s es",
      "Ġ &",
      "Ġt re",
      "Ġs leep",
      "in ese",
      "Ġb le",
      "Ġb ank",
      "Ġm iss",
      "Ġh um",
      "ot es",
      "Ġst uck",
      "Ġj ud",
      "Ġan n",
      "Ġwe ar",
      "Ġse at",
      "ab ly",
      "Ġco l",
      "Ġ1 0",
      "ud e",
      "Ġbre ak",
      "Ġad m",
      "oc ked",
      "Ġfollow ing",
      "Ġpull ed",
      "Ġcont in",
      "Ġdiffe rence",
      "Ġbab y",
      "Ġconvers ation",
      "g o",
      "l ic",
      "t t",
      "y eah",
      "he ad",
      "Ġs ix",
      "in a",
      "ou p",
      "re ady",
      "Ġb ought",
      "Ġm ight",
      "on y",
      "an ic",
      "Ġg ay",
      "or row",
      "Ġl im",
      "Ġl arge",
      "it her",
      "as ed",
      "Ġin stead",
      "Ġe vent",
      "Ġre f",
      "ac hes",
      "Ġst ep",
      "Ġme al",
      "am n",
      "Ġtr amp",
      "Ġtr ying",
      "Ġal ready",
      "Ġex claim",
      "Ġpl an",
      "Ġpro stit",
      "Ġbl ind",
      "Ġfl o",
      "Ġmon k",
      "Ġmar ried",
      "Ġbit ch",
      "Ġstand ing",
      "Ġhour s",
      "Ġact ually",
      "Ġnotic es",
      "Ġcour se",
      "Ġter ri",
      "Ġwatch ing",
      "hem atic",
      "Ġagre ed",
      "Ġreve al",
      "e e",
      "o f",
      "u g",
      "Ġt ried",
      "he re",
      "Ġi ce",
      "Ġb ow",
      "Ġm ed",
      "or k",
      "Ġp ants",
      "Ġhe art",
      "Ġn un",
      "et s",
      "Ġst or",
      "Ġst udent",
      "Ġj ump",
      "ent le",
      "ent ist",
      "ur ch",
      "Ġsh ot",
      "Ġup stairs",
      "Ġr an",
      "Ġr uss",
      "ant ly",
      "un g",
      "ain ed",
      "Ġch ang",
      "art ment",
      "Ġsu per",
      "Ġfe ma",
      "Ġar t",
      "fe ct",
      "Ġmat hematic",
      "Ġrespond ed",
      "Ġpres ident",
      "Ġsin ce",
      "Ġmil k",
      "Ġfavor ite",
      "Ġfema le",
      "1 0",
      "b ed",
      "c ial",
      "g r",
      "g es",
      "l s",
      "l aw",
      "o ld",
      "r ic",
      "t ure",
      "w ard",
      "Ġ z",
      "in es",
      "Ġb ag",
      "Ġh ur",
      "Ġg on",
      "Ġg un",
      "Ġg entle",
      "Ġp i",
      "is hes",
      "Ġo b",
      "ar i",
      "ot t",
      "Ġre g",
      "Ġre s",
      "Ġst ra",
      "Ġj an",
      "Ġwh ite",
      "ch ing",
      "Ġup v",
      "Ġr ing",
      "Ġde p",
      "Ġma gic",
      "Ġco ffe",
      "Ġro ll",
      "Ġro ad",
      "ond e",
      "so l",
      "Ġthin king",
      "Ġ1 2",
      "Ġpre gn",
      "Ġdad dy",
      "Ġke pt",
      "Ġdrin ks",
      "igh b",
      "up id",
      "Ġpic ture",
      "Ġhu ge",
      "Ġhor se",
      "Ġconf used",
      "Ġac ross",
      "Ġcomm un",
      "Ġcomple te",
      "Ġreas on",
      "Ġcoffe e",
      "? !",
      "a pp",
      "h i",
      "m m",
      "p ort",
      "w ow",
      "Ġs n",
      "Ġw ond",
      "Ġd ark",
      "Ġc ur",
      "Ġc ity",
      "Ġc ase",
      "Ġf ing",
      "Ġf ence",
      "is on",
      "Ġo h",
      "Ġl ion",
      "ve l",
      "Ġbe gg",
      "Ġe asy",
      "Ġit al",
      "ac y",
      "am b",
      "ter n",
      "Ġman ag",
      "Ġgo lf",
      "Ġsh ocked",
      "Ġne ighb",
      "Ġsu cc",
      "Ġma king",
      "Ġle ast",
      "ian s",
      "Ġwant s",
      "Ġqu iet",
      "Ġcall s",
      "Ġnew s",
      "uc ks",
      "Ġdri ving",
      "Ġsl ow",
      "ok ay",
      "Ġord ers",
      "Ġcle an",
      "Ġir ishman",
      "Ġok ay",
      "Ġjew ish",
      "Ġcount ry",
      "Ġlea ves",
      "Ġnam ed",
      "Ġgon na",
      "Ġsucc ess",
      "1 1",
      "1 5",
      "a ven",
      "a per",
      "c i",
      "g ot",
      "o ff",
      "y ed",
      "y our",
      "Ġ ^",
      "Ġm outh",
      "Ġd ressed",
      "Ġc ut",
      "at or",
      "an y",
      "Ġg ri",
      "Ġy et",
      "Ġl unch",
      "ar r",
      "en ing",
      "Ġbe ll",
      "Ġst upid",
      "Ġan t",
      "Ġme an",
      "Ġk it",
      "âĢĿ .",
      "ter s",
      "Ġch urch",
      "Ġli ving",
      "Ġde m",
      "Ġex p",
      "ra id",
      "Ġqu ite",
      "Ġbl onde",
      "Ġ1 5",
      "Ġpr ay",
      "Ġpr ime",
      "Ġmo v",
      "Ġho le",
      "Ġca ke",
      "Ġdog s",
      "Ġ5 0",
      "Ġpar r",
      "Ġread ing",
      "Ġdro ps",
      "Ġve g",
      "Ġnotic ed",
      "Ġdiffe rent",
      "Ġbro ke",
      "Ġmill ion",
      "Ġevent ually",
      "h and",
      "l er",
      "m om",
      "t r",
      "u red",
      "w a",
      "Ġt y",
      "Ġs ad",
      "Ġs am",
      "Ġw arm",
      "Ġm ess",
      "Ġh oney",
      "Ġc al",
      "Ġc ool",
      "Ġc rying",
      "Ġf ar",
      "Ġp ain",
      "Ġp ie",
      "Ġp ool",
      "es us",
      "Ġhe aven",
      "Ġl ist",
      "Ġl ess",
      "Ġn er",
      "Ġbe l",
      "Ġbe ar",
      "ic s",
      "Ġre ady",
      "ac es",
      "ac hed",
      "im p",
      "Ġst re",
      "Ġk iss",
      "se l",
      "ur b",
      "ill a",
      "Ġwor st",
      "Ġbo x",
      "Ġpo s",
      "Ġcon s",
      "Ġcl im",
      "Ġgr oup",
      "we red",
      "ens ive",
      "ren ch",
      "Ġbu ild",
      "Ġbre ast",
      "Ġatt ract",
      "Ġper fect",
      "Ġans wered",
      "Ġshout s",
      "Ġrespond s",
      "ati o",
      "Ġyell s",
      "Ġfig ure",
      "Ġcust om",
      "Ġsudden ly",
      "idd le",
      "Ġloc al",
      "! '",
      ". âĢĻ",
      "b all",
      "c an",
      "g ed",
      "h h",
      "i li",
      "l ine",
      "m as",
      "n et",
      "p ing",
      "s f",
      "w ith",
      "w ife",
      "Ġ edit",
      "Ġs y",
      "Ġs we",
      "in al",
      "Ġw ow",
      "Ġb ur",
      "Ġb urn",
      "er r",
      "er y",
      "Ġf at",
      "Ġf air",
      "Ġf rench",
      "Ġto t",
      "Ġg or",
      "Ġg ender",
      "Ġp u",
      "Ġp at",
      "Ġp unch",
      "it or",
      "Ġn ur",
      "ow ing",
      "le t",
      "Ġe ither",
      "al th",
      "Ġst ore",
      "ri es",
      "Ġan g",
      "am a",
      "ter day",
      "Ġtr ue",
      "Ġbo b",
      "Ġknow s",
      "Ġro b",
      "ort un",
      "oh n",
      "Ġdrin king",
      "Ġpass ed",
      "Ġcr owd",
      "Ġsw im",
      "Ġwee ks",
      "ious ly",
      "Ġstand s",
      "Ġfun ny",
      "Ġplay ing",
      "Ġaf raid",
      "che n",
      "Ġfro g",
      "Ġspea k",
      "Ġruss ian",
      "Ġcomplete ly",
      "Ġkit chen",
      "& #",
      "c es",
      "e f",
      "i ps",
      "p ers",
      "u an",
      "y ear",
      "z y",
      "Ġ ,",
      "Ġs its",
      "Ġs na",
      "Ġb ra",
      "Ġb ase",
      "Ġb ott",
      "Ġm us",
      "Ġd ate",
      "Ġc ath",
      "Ġf ine",
      "Ġp eter",
      "is f",
      "Ġhe ars",
      "id er",
      "ot he",
      "ic t",
      "ad e",
      "Ġk ic",
      "Ġr ub",
      "li ke",
      "Ġyour self",
      "ce ed",
      "Ġnot e",
      "Ġsu it",
      "Ġab le",
      "Ġtr ain",
      "Ġwor ked",
      "Ġal most",
      "Ġex t",
      "Ġex act",
      "Ġex pect",
      "Ġfe et",
      "ation al",
      "Ġbl ue",
      "ous ly",
      "ol ic",
      "ull y",
      "Ġsl a",
      "Ġatt ention",
      "Ġad v",
      "Ġche ck",
      "Ġsecond s",
      "Âł Ċ",
      "Ġser ve",
      "ru pt",
      "Ġid i",
      "Ġrun ning",
      "Ġreturn ed",
      "Ġansw ers",
      "Ġbec ome",
      "Ġpolice man",
      "Ġsil ver",
      "Ġap artment",
      "Ġvis it",
      "Ġprostit ute",
      "Ġflo or",
      "Ġmathematic ian",
      "Ġgentle man",
      "Ġpregn ant",
      "sf w",
      "/ /",
      ": \"",
      ": //",
      "d ing",
      "g ood",
      "h or",
      "h is",
      "i ke",
      "o ved",
      "s et",
      "Ġ es",
      "Ġs ca",
      "in ed",
      "Ġw ood",
      "re ct",
      "Ġb at",
      "Ġb oo",
      "Ġm ate",
      "nd red",
      "on ce",
      "Ġd ist",
      "Ġd ress",
      "Ġc ure",
      "Ġc atch",
      "Ġf err",
      "at ure",
      "Ġg ard",
      "Ġp ot",
      "Ġp et",
      "Ġp ound",
      "Ġp ick",
      "Ġp ati",
      "is es",
      "Ġo bs",
      "Ġl ord",
      "Ġl oud",
      "Ġin c",
      "Ġin s",
      "om an",
      "ic ally",
      "Ġre l",
      "Ġme as",
      "Ġr us",
      "Ġli ved",
      "Ġde ar",
      "Ġde ep",
      "il es",
      "ore d",
      "ist s",
      "Ġpo ck",
      "ast urb",
      "Ġta ken",
      "Ġsp end",
      "ul b",
      "Ġcl ub",
      "we l",
      "Ġbr ought",
      "Ġmo s",
      "Ġun cle",
      "Ġim ag",
      "Ġfl ag",
      "Ġfo ot",
      "Ġhead s",
      "Ġmar k",
      "Ġpar k",
      "Ġear ly",
      "Ġser v",
      "Ġpic ked",
      "Ġmay be",
      "Ġrun s",
      "Ġletter s",
      "Ġfav our",
      "Ġrest aur",
      "Ġfell ow",
      "Ġengl ishman",
      "Ġlaugh s",
      "Ġscream ing",
      "Ġbeg an",
      "Ġbud d",
      "Ġprof ess",
      "oun ced",
      "Ġstrang er",
      "Ġble w",
      "tt ps",
      "Ġexclaim ed",
      "Ġterri ble",
      "Ġstra ight",
      "Ġbegg ar",
      "Ġrestaur ant",
      ". *",
      "] (",
      "e y",
      "e very",
      "f ast",
      "f uck",
      "h ttps",
      "m ore",
      "p op",
      "u ation",
      "Ġa ust",
      "Ġa ff",
      "Ġb ird",
      "Ġb ook",
      "Ġh on",
      "Ġh ate",
      "Ġd ie",
      "Ġd amn",
      "Ġc up",
      "Ġto wards",
      "Ġg y",
      "Ġg er",
      "Ġp ir",
      "Ġp orn",
      "Ġp ub",
      "is c",
      "is m",
      "Ġo pp",
      "en e",
      "Ġth ough",
      "Ġin te",
      "Ġin for",
      "ow er",
      "ic es",
      "Ġe gg",
      "Ġre ce",
      "Ġis ra",
      "ver t",
      "ac ed",
      "Ġst ood",
      "Ġj e",
      "Ġj ones",
      "oo se",
      "Ġme m",
      "Ġso l",
      "ain s",
      "Ġtr a",
      "Ġcom ment",
      "Ġlo ver",
      "Ġfe lt",
      "Ġhow ever",
      "Ġv i",
      "ation s",
      "Ġen jo",
      "Ġmo ve",
      "Ġboy friend",
      "arm a",
      "te red",
      "Ġshow s",
      "Ġbre ath",
      "Ġwait er",
      "jo b",
      "Ġreturn s",
      "Ġsat isf",
      "Ġhu ndred",
      "Ġbec ame",
      "Ġsk irt",
      "Ġacc ident",
      "Ġfeel ing",
      "Ġpres ent",
      "Ġengl ish",
      "Ġpa per",
      "fin ite",
      "Ġsho es",
      "Ġsing le",
      "Ġdin ner",
      "Ġpri v",
      "Ġsand w",
      "Ġbreak fast",
      "Ġfing er",
      "Ġstre et",
      "sel ves",
      "Ġattract ive",
      "Ġgor illa",
      "Ġcath olic",
      "Ġferr ari",
      "Ġgard en",
      ": **",
      "c on",
      "c ome",
      "d e",
      "j ect",
      "m en",
      "o ver",
      "s ing",
      "s ome",
      "Ġs li",
      "in c",
      "in k",
      "Ġw it",
      "Ġb ri",
      "Ġb orn",
      "Ġm id",
      "Ġm ic",
      "Ġm ist",
      "Ġm ass",
      "Ġd entist",
      "Ġc ard",
      "Ġc ross",
      "Ġf ired",
      "Ġf light",
      "Ġg h",
      "Ġg as",
      "Ġg ra",
      "Ġhe aring",
      "Ġl a",
      "Ġin ches",
      "Ġon to",
      "ir ty",
      "ver n",
      "Ġfor get",
      "ut er",
      "Ġst ar",
      "Ġst ate",
      "am m",
      "am s",
      "Ġse a",
      "Ġse ll",
      "Ġsa ve",
      "and s",
      "Ġch ie",
      "Ġde al",
      "um e",
      "qu e",
      "Ġrep ort",
      "Ġrep ost",
      "Ġcom pl",
      "ast e",
      "Ġv ag",
      "Ġbl ood",
      "Ġ1 00",
      "Ġtell ing",
      "Ġsm oke",
      "Ġsm iles",
      "Ġte x",
      "Ġdec ide",
      "Ġdis app",
      "do ctor",
      "Ġbre ad",
      "sh ip",
      "Ġatt end",
      "gg ing",
      "Ġstr ange",
      "Ġdes ire",
      "Ġear th",
      "Ġgi ving",
      "Ġrec ru",
      "Ġgen er",
      "Ġpic ks",
      "arent ly",
      "Ġameric a",
      "Ġbec om",
      "Ġreal ized",
      "Ġword s",
      "Ġexplain ed",
      "Ġking d",
      "Ġball s",
      "ww w",
      "gre g",
      "Ġfore st",
      "Ġexc ited",
      "Ġsit uation",
      "Ġfair y",
      "Ġfavour ite",
      "Ġger man",
      "Ġinte rest",
      "Ġrecru it",
      "3 0",
      "? ?",
      "a king",
      "d er",
      "f r",
      "g en",
      "g ive",
      "i ves",
      "l ook",
      "n sfw",
      "s ure",
      "t a",
      "z z",
      "z an",
      "Ġ ed",
      "Ġa the",
      "Ġs id",
      "Ġw ishes",
      "re s",
      "re ad",
      "Ġb as",
      "Ġm al",
      "Ġm ath",
      "Ġh op",
      "Ġh ol",
      "Ġc orn",
      "Ġc ash",
      "Ġf it",
      "or al",
      "Ġ\" $",
      "ic ian",
      "Ġe ating",
      "Ġit ching",
      "et h",
      "ac ks",
      "ri ff",
      "Ġwh ore",
      "ent y",
      "Ġwe ather",
      "Ġk arma",
      "Ġsa il",
      "th ree",
      "Ġup on",
      "Ġr u",
      "Ġbut ton",
      "Ġli br",
      "pp ing",
      "Ġsu m",
      "Ġfr u",
      "um ps",
      "Ġle mon",
      "Ġtr ave",
      "Ġlo se",
      "Ġlo gic",
      "Ġsp ot",
      "ight s",
      "Ġv ir",
      "Ġ1 8",
      "Ġsm ile",
      "Ġsm iled",
      "au ght",
      "Ġcar ry",
      "Ġdec l",
      "pe red",
      "Ġfin ished",
      "Ġgre w",
      "Ġjob s",
      "Ġstop s",
      "Ġpull s",
      "Ġdro pped",
      "ste in",
      "Ġyes terday",
      "Ġem pt",
      "Ġair port",
      "Ġinter net",
      "Ġspe cial",
      "Ġamaz ing",
      "Ġmail man",
      "fin ally",
      "Ġdisc uss",
      "Ġtom orrow",
      "Ġbath room",
      "Ġcra zy",
      "Ġsus pect",
      "Ġjan itor",
      "Ġdep ressed",
      "Ġslow ly",
      "Ġmov ie",
      "Ġveg as",
      "Ġtot ally",
      "8 8",
      "[ **",
      "b ably",
      "c y",
      "c ing",
      "f ully",
      "g y",
      "i ence",
      "i vers",
      "j ohn",
      "o king",
      "u ed",
      "y o",
      "Ġ ~",
      "Ġt ro",
      "Ġt aste",
      "Ġa ut",
      "Ġa head",
      "Ġs un",
      "Ġs ick",
      "Ġw ar",
      "Ġb es",
      "Ġm r",
      "Ġm asturb",
      "Ġh ar",
      "Ġh ill",
      "Ġh ide",
      "Ġh ang",
      "Ġd est",
      "Ġd ire",
      "Ġd ies",
      "Ġd ue",
      "Ġf re",
      "Ġf ur",
      "Ġf ight",
      "Ġf ix",
      "an ese",
      "Ġg ates",
      "Ġp oo",
      "Ġp ig",
      "Ġn one",
      "âĢĮâĢĮ !",
      "âĢĮâĢĮ \"",
      "ow ed",
      "us es",
      "ic an",
      "Ġe p",
      "Ġe ve",
      "al right",
      "Ġas leep",
      "Ġk ick",
      "se c",
      "ch inese",
      "Ġch all",
      "Ġcan ad",
      "Ġcan not",
      "Ġkn oc",
      "to day",
      "Ġab ove",
      "Ġab sol",
      "Ġwor ry",
      "Ġpo or",
      "Ġoff ic",
      "Ġthem selves",
      "Ġno body",
      "Ġex am",
      "Ġpl aces",
      "Ġar ms",
      "Ġar rest",
      "are ly",
      "Ġpro ceed",
      "Ġsee m",
      "Ġsee med",
      "ag es",
      "ag ain",
      "** ](",
      "** [**",
      "au g",
      "Ġboy s",
      "Ġsc rew",
      "be lie",
      "Ġcou n",
      "Ġthr ows",
      "Ġwait ress",
      "Ġsur v",
      "Ġop ened",
      "Ġgl ad",
      "abb ie",
      "Ġpol it",
      "Ġstop ped",
      "Ġcomp uter",
      "Ġrem ind",
      "Ġrem oved",
      "Ġter m",
      "Ġwhis key",
      "Ġwhis pers",
      "Ġsal es",
      "Ġcor rect",
      "Ġpoint s",
      "Ġtou ch",
      "Ġchrist ian",
      "Ġdra w",
      "uri ous",
      "Ġappro aches",
      "Ġsurpr ise",
      "Ġsurpr ised",
      "Ġnear by",
      "Ġlear ned",
      "Ġengine er",
      "Ġposs ible",
      "Ġmed ic",
      "Ġupv otes",
      "Ġital ian",
      "off icer",
      "Ġidi ot",
      "Ġpound s",
      "Ġpati ent",
      "Ġprofess or",
      "Ġaust ral",
      "Ġegg s",
      "Ġvag ina",
      "Ġtex as",
      "Ġathe ist",
      "5 00",
      "? !\"",
      "\\ -",
      "b b",
      "c er",
      "f er",
      "g ing",
      "h usband",
      "i o",
      "l a",
      "l ater",
      "n ight",
      "n el",
      "p o",
      "p ro",
      "r r",
      "r or",
      "u ct",
      "v iously",
      "w ord",
      "Ġt it",
      "Ġt im",
      "ou ble",
      "Ġi gn",
      "Ġb en",
      "Ġb ull",
      "Ġb ang",
      "Ġm ot",
      "Ġm all",
      "Ġd an",
      "Ġd umb",
      "Ġc ir",
      "Ġc ook",
      "Ġc ert",
      "Ġf a",
      "Ġf u",
      "Ġf ill",
      "Ġf ast",
      "at o",
      "at ive",
      "an na",
      "ed ing",
      "Ġg ro",
      "or ian",
      "Ġp ant",
      "Ġp un",
      "Ġp ack",
      "Ġp il",
      "Ġp anic",
      "ll o",
      "Ġo dd",
      "Ġhe y",
      "Ġl it",
      "Ġl ay",
      "Ġl ying",
      "ar zan",
      "Ġn on",
      "Ġ\" âĢĮâĢĮ",
      "id ay",
      "us er",
      "Ġbe ach",
      "ver al",
      "Ġfor got",
      "ut ion",
      "Ġst ick",
      "Ġst airs",
      "Ġj umps",
      "Ġan ge",
      "Ġan no",
      "Ġme ans",
      "Ġwe ird",
      "Ġk ore",
      "Ġse ar",
      "Ġat e",
      "and er",
      "op ed",
      "li g",
      "Ġare n",
      "ant a",
      "Ġde f",
      "Ġcan n",
      "Ġma le",
      "Ġgu ards",
      "ab les",
      "Ġco vid",
      "Ġal one",
      "ig er",
      "Ġsp ent",
      "Ġex per",
      "Ġor ange",
      "Ġpro bably",
      "Ġold er",
      "Ġgr ab",
      "Ġany more",
      "Ġbr it",
      "Ġpre p",
      "ud d",
      "Ġpr act",
      "Ġte en",
      "Ġun ited",
      "Ġhand ed",
      "Ġapp le",
      "Ġfl at",
      "Ġhapp en",
      "Ġpass ion",
      "sh man",
      "Ġsur ger",
      "Ġeven ing",
      "Ġcr u",
      "Ġsw it",
      "Ġneed s",
      "Ġstr ong",
      "Ġfollow s",
      "Ġcont ro",
      "Ġkill ed",
      "Ġshout ed",
      "Ġshout ing",
      "Ġcle ar",
      "Ġacc ount",
      "Ġgrand ma",
      "Ġgrand father",
      "Ġwhis pered",
      "ib ly",
      "Ġlea ving",
      "Ġagre es",
      "Ġchrist mas",
      "Ġnor th",
      "Ġsend s",
      "Ġsus p",
      "eng l",
      "Ġchick ens",
      "Ġjud ges",
      "Ġjump ed",
      "Ġchang ed",
      "law yer",
      "wa it",
      "Ġpos ition",
      "Ġpock et",
      "Ġisra el",
      "Ġmem ory",
      "Ġgh ost",
      "' âĢĮâĢĮ",
      "? âĢĻ",
      "a le",
      "b ack",
      "d ong",
      "h ot",
      "i or",
      "i ent",
      "j ack",
      "m pt",
      "o b",
      "o id",
      "o li",
      "s m",
      "s ir",
      "s orry",
      "u gg",
      "z en",
      "Ġ [",
      "Ġt ight",
      "he n",
      "Ġs ou",
      "Ġs le",
      "Ġs im",
      "Ġs ort",
      "Ġw ild",
      "Ġm ur",
      "Ġm ach",
      "Ġm atch",
      "Ġm ask",
      "Ġm iddle",
      "Ġh ous",
      "Ġd et",
      "Ġd av",
      "Ġd ucks",
      "Ġd irty",
      "Ġc re",
      "Ġc am",
      "Ġc aught",
      "Ġf ail",
      "Ġf aster",
      "Ġto ile",
      "Ġp air",
      "Ġy o",
      "Ġo pt",
      "Ġo per",
      "Ġhe alth",
      "ar ian",
      "en hot",
      "Ġof ten",
      "id es",
      "Ġe tern",
      "Ġre act",
      "Ġha ven",
      "im ent",
      "Ġj esus",
      "Ġu g",
      "Ġan im",
      "Ġwe l",
[...]
